
#define NNoutput &buffer0[5120];

/* sram:63328, flash:440816 */

static signed char buffer[63328];
static signed char *buffer0 = &buffer[0];
static signed char *buffer1 = &buffer[57344];
static int16_t *sbuf = (int16_t *)&buffer[57344];
static int32_t *kbuf = (int32_t *)&buffer[62464];
const int SBuffer_size = 5120;
const int KBuffer_size = 864;

const unsigned char weight0[432] = {0x5b, 0x68, 0xc1, 0x48, 0x85, 0x67, 0x16, 0x7f, 0x40, 0x22, 0xcc, 0x3f, 0x7f, 0x04, 0x4e, 0x6b, 0xb9, 0x97, 0x73, 0x96, 0x4d, 0xb0, 0xe9, 0xbc, 0x9c, 0x5f, 0x60, 0x2b, 0xca, 0x9b, 0xe6, 0x73, 0x5b, 0x48, 0x8f, 0x81, 0x4c, 0xf5, 0x7f, 0xec, 0x96, 0x15, 0x8f, 0x1c, 0x18, 0xb4, 0x75, 0xeb, 0x74, 0x3f, 0x4e, 0xcc, 0x0b, 0xf8, 0xff, 0x1a, 0xc4, 0x83, 0x72, 0xc2, 0x63, 0x49, 0xde, 0x81, 0x5f, 0x29, 0x86, 0xb8, 0xd0, 0x59, 0x3f, 0x10, 0xc1, 0xd3, 0xc6, 0xef, 0x4b, 0x12, 0x07, 0x4e, 0x31, 0x77, 0xf0, 0x41, 0xd9, 0x59, 0x32, 0x9d, 0x7f, 0x8e, 0xae, 0x96, 0x3e, 0x01, 0xf4, 0x25, 0xe2, 0x66, 0xdf, 0x99, 0xb9, 0xee, 0xe9, 0x17, 0x4d, 0xef, 0xe3, 0x45, 0x95, 0x73, 0xe6, 0xd8, 0x7f, 0x6f, 0x0c, 0xa5, 0x3e, 0x9e, 0xe5, 0x42, 0xd7, 0x8d, 0xc8, 0xa6, 0xd8, 0xc5, 0x1b, 0x83, 0xf2, 0x85, 0xcc, 0x94, 0xa7, 0x25, 0xb9, 0x1a, 0x8d, 0xb0, 0x57, 0x67, 0x95, 0x6c, 0x71, 0x98, 0x10, 0xc9, 0x52, 0x1f, 0xbb, 0x81, 0x63, 0xe4, 0xbc, 0xb1, 0x9f, 0x1d, 0xc3, 0x28, 0x6a, 0x3a, 0x46, 0x2c, 0x73, 0x2d, 0xb9, 0x20, 0x99, 0x91, 0x63, 0xcf, 0xb3, 0xe7, 0x77, 0xc6, 0x81, 0xda, 0xc4, 0xee, 0x13, 0x34, 0xf9, 0xd8, 0x2f, 0x30, 0x06, 0xf3, 0x49, 0x69, 0x1b, 0x32, 0x91, 0x32, 0x29, 0x42, 0xc1, 0xe8, 0xfb, 0x4e, 0x3c, 0xb8, 0xed, 0x17, 0xfd, 0x16, 0x81, 0x5d, 0x32, 0x69, 0x27, 0x28, 0x0c, 0xc1, 0x3a, 0xbb, 0x7e, 0x8e, 0xdf, 0x07, 0xdc, 0x9c, 0xca, 0xc9, 0x2b, 0x7d, 0x78, 0xb1, 0xa9, 0x1a, 0x82, 0x45, 0x20, 0x06, 0x81, 0xb2, 0x1b, 0xb6, 0x1c, 0xd6, 0x3d, 0x13, 0x54, 0x0a, 0xd7, 0x17, 0x3a, 0x86, 0xa3, 0xfd, 0x39, 0x4c, 0x06, 0xf5, 0x2b, 0x84, 0xef, 0x91, 0x5c, 0xea, 0x34, 0x09, 0x52, 0x64, 0xad, 0x81, 0xd2, 0x37, 0xee, 0x61, 0x33, 0x11, 0x10, 0x6a, 0xa0, 0xa3, 0x74, 0x81, 0x03, 0x2e, 0x08, 0xa5, 0x00, 0x1f, 0xb3, 0x77, 0x20, 0xb5, 0xf2, 0xa4, 0x34, 0xeb, 0x18, 0x87, 0xef, 0x19, 0x66, 0x3a, 0x18, 0x4a, 0xb0, 0xdf, 0x00, 0xdd, 0xeb, 0x05, 0xf6, 0xff, 0x3f, 0xc0, 0x3c, 0x05, 0x3a, 0x9d, 0xbe, 0x81, 0xeb, 0xff, 0x99, 0x39, 0x75, 0xb6, 0xd6, 0xf2, 0xb8, 0xa9, 0x30, 0xbd, 0x81, 0x0e, 0x91, 0xc4, 0x3a, 0x41, 0xe0, 0xc1, 0xe1, 0x63, 0xe5, 0xde, 0x5d, 0xf2, 0x1e, 0xeb, 0xf2, 0xa8, 0xda, 0x73, 0xdd, 0x50, 0x94, 0x79, 0x19, 0x91, 0xda, 0xde, 0xf0, 0x5c, 0xa1, 0xbe, 0x03, 0xc0, 0xbd, 0x98, 0x3a, 0x40, 0xa6, 0x6a, 0xa7, 0x6a, 0x7a, 0x37, 0xff, 0x0f, 0x63, 0xe3, 0x44, 0x7f, 0x34, 0x7c, 0x72, 0x9a, 0x7f, 0x33, 0xea, 0x5d, 0xff, 0x5b, 0x43, 0xc2, 0x9b, 0x93, 0x3a, 0x78, 0x24, 0x4a, 0x95, 0x64, 0xef, 0x49, 0x75, 0x28, 0x2d, 0x28, 0xba, 0x38, 0x61, 0x79, 0xb3, 0xce, 0xf3, 0x66, 0x28, 0x0f, 0xbd, 0xfc, 0x3c, 0x9d, 0x2b, 0x5a, 0x48, 0x40, 0xaa, 0xbe, 0x7f, 0x3e, 0xd7, 0x5c, 0xfe, 0x07, 0xa8, 0x4e, 0xec, 0x89, };
const int32_t bias0[16] = {-15625, 2796, -18347, -17469, 7122, 27212, -20468, 526, 540, 15904, -23243, 28575, -5662, 15294, -8816, -30824, };
const float scales0[16] = {0.0006213440207982293, 0.0006609466212901459, 0.000656978468209329, 0.0006178968382797083, 0.0006500522059788463, 0.000656522917368612, 0.0006349537100970285, 0.0006604999082068473, 0.0005857346136998148, 0.0006489717647386044, 0.0006042544899118288, 0.0006594233779282216, 0.0006551935459610881, 0.0006272222976907131, 0.0006100352467224555, 0.0006153373932563428, };
const int32_t shift0[16] = {-10, -10, -10, -10, -10, -10, -10, -10, -10, -10, -10, -10, -10, -10, -10, -10, };
const int32_t multiplier0[16] = {1366349951, 1453436991, 1444710930, 1358769517, 1429479918, 1443709163, 1396277975, 1452454658, 1288044037, 1427104003, 1328769676, 1450087343, 1440785844, 1379276419, 1341481694, 1353141238, };
const unsigned char CHWweight1[16] = {0x7f, 0x81, 0x81, 0x81, 0x7f, 0x81, 0x7f, 0x7f, 0x81, 0x81, 0x7f, 0x81, 0x81, 0x81, 0x81, 0x81, };
const int32_t offsetBias1[16] = {-20041, -405, 13109, -4335, 10812, -24483, -3966, 15155, 21853, 18225, 7424, -3737, -14508, 18112, -121056, 37280, };
const int32_t offsetRBias1[16] = {0, 0, 0, 0, 0, 0, 0, 0, 0, 0, 0, 0, 0, 0, 0, 0, };
const float scales1[16] = {0.003965464681529853, 0.007092153344849195, 0.005218644928519575, 0.006909678588949921, 0.005656055855785376, 0.002377259556832967, 0.004645445410704375, 0.00509281615080986, 0.004445222138333708, 0.00576119194831185, 0.002781202732353643, 0.002597149790111973, 0.005047200474873197, 0.003971520888222206, 0.0006467662878514625, 0.0023888173559800693, };
const int32_t shift1[16] = {-7, -7, -7, -7, -7, -8, -7, -7, -7, -7, -8, -8, -7, -7, -10, -8, };
const int32_t multiplier1[16] = {1090018632, 1949476267, 1434490195, 1899317988, 1554724795, 1306912262, 1276930311, 1399902644, 1221893357, 1583624384, 1528982372, 1427798197, 1387363902, 1091683349, 1422254108, 1313266230, };
const unsigned char weight2[128] = {0xff, 0x2c, 0xe0, 0x29, 0xeb, 0x81, 0x2a, 0xf9, 0x67, 0x67, 0x6c, 0xdf, 0x61, 0xce, 0x6f, 0xde, 0x81, 0xfb, 0x60, 0x84, 0x2a, 0x90, 0x30, 0x04, 0x30, 0xc5, 0xa5, 0x59, 0x52, 0x8b, 0xa8, 0x5e, 0x07, 0x49, 0x97, 0xe0, 0x0c, 0x2a, 0x89, 0xff, 0x08, 0xc3, 0x81, 0xab, 0x85, 0x5b, 0x13, 0x3c, 0x7a, 0x95, 0x4d, 0x2d, 0xf2, 0xbd, 0xd2, 0xa1, 0xca, 0x77, 0x7f, 0x46, 0x7d, 0xa5, 0x01, 0x25, 0x81, 0x8e, 0x77, 0x90, 0xa9, 0x36, 0x71, 0x74, 0xf2, 0xbb, 0x77, 0xa4, 0x8f, 0x00, 0x3b, 0x76, 0x78, 0xce, 0xf7, 0xdb, 0x0c, 0x6a, 0xe1, 0x7f, 0xdd, 0xac, 0xe3, 0x97, 0x4c, 0xb0, 0x77, 0xc3, 0x12, 0x07, 0x54, 0x2f, 0x89, 0x65, 0xa7, 0x81, 0x26, 0xc6, 0x2f, 0xc3, 0x8a, 0x3b, 0x50, 0xbb, 0x33, 0xb6, 0x9d, 0x69, 0xcf, 0x9b, 0x66, 0x81, 0x4c, 0x03, 0xed, 0xbd, 0xe3, 0x1a, 0x65, 0x28, };
const int32_t bias2[8] = {-8008, -12526, -10094, -10341, 5926, 7668, 9304, -6159, };
const float scales2[8] = {0.0027157107712836625, 0.0027235388826947976, 0.002636772617756187, 0.0027730084682841215, 0.0028443639394727187, 0.0027116307050991575, 0.0028391629609700376, 0.002860321098986232, };
const int32_t shift2[8] = {-8, -8, -8, -8, -8, -8, -8, -8, };
const int32_t multiplier2[8] = {1492977785, 1497281335, 1449581077, 1524477527, 1563705613, 1490734745, 1560846344, 1572478154, };
const unsigned char weight3[384] = {0x3c, 0x6d, 0x7f, 0x39, 0x89, 0xd9, 0x88, 0xe8, 0x26, 0x0e, 0x6b, 0xcd, 0x81, 0x85, 0x7c, 0x8d, 0xb2, 0x53, 0xf6, 0x81, 0x20, 0x17, 0x02, 0x64, 0xba, 0x09, 0x10, 0x22, 0xd5, 0x81, 0x7d, 0x0d, 0x77, 0x7f, 0x35, 0x14, 0x7a, 0x16, 0xb7, 0x15, 0x84, 0x81, 0x3b, 0x85, 0x40, 0xe3, 0x6a, 0x2a, 0x6c, 0x6a, 0xf0, 0xb3, 0x7b, 0x56, 0xe7, 0x7f, 0xa5, 0x7f, 0xb5, 0xbf, 0x4a, 0xd5, 0x95, 0xf8, 0xc8, 0x4d, 0xe1, 0x7f, 0x59, 0x8a, 0xd2, 0xad, 0xe8, 0xd5, 0x89, 0x3f, 0xb2, 0xad, 0x86, 0x7f, 0xc2, 0x1c, 0x01, 0xe1, 0x16, 0xd2, 0x8e, 0x7f, 0x29, 0x7f, 0x09, 0x8f, 0xfc, 0x2c, 0x99, 0x2b, 0xe3, 0xe0, 0xb6, 0x93, 0xa9, 0xec, 0x7f, 0xf4, 0xac, 0x7c, 0x7f, 0xaf, 0x91, 0x32, 0xd2, 0xfa, 0x10, 0x49, 0x7f, 0xac, 0xc0, 0xab, 0x0d, 0xb8, 0xfa, 0xfa, 0x52, 0x97, 0x99, 0x0b, 0x2d, 0x7f, 0x81, 0xd8, 0x63, 0x81, 0xb4, 0xd3, 0xb3, 0x05, 0xd7, 0x1c, 0xa2, 0x00, 0x81, 0x25, 0x44, 0x00, 0x81, 0xba, 0x6e, 0x55, 0xd4, 0xf8, 0x07, 0xa1, 0x65, 0xac, 0x3d, 0x27, 0x81, 0x23, 0x2b, 0xcb, 0x74, 0x70, 0x98, 0x03, 0x81, 0xa2, 0x90, 0xe5, 0x4b, 0x7f, 0x4d, 0x15, 0x66, 0x96, 0xcf, 0x04, 0x89, 0x81, 0x77, 0xdd, 0x90, 0xba, 0xc5, 0x28, 0x4e, 0xee, 0x68, 0xd2, 0xa6, 0x88, 0x7f, 0x81, 0x51, 0xc4, 0x16, 0xfc, 0xde, 0x7f, 0x84, 0x72, 0xd6, 0x7f, 0x1e, 0xfd, 0x89, 0x02, 0xc5, 0x49, 0xdd, 0x02, 0xb2, 0x95, 0x77, 0x60, 0x81, 0x75, 0x9a, 0x18, 0xdf, 0x3b, 0xa5, 0x7f, 0xdb, 0x5b, 0x1e, 0x13, 0x9a, 0x81, 0xf9, 0x37, 0x70, 0x63, 0x17, 0xd2, 0x73, 0x7f, 0x5c, 0x3f, 0x6b, 0xec, 0xf1, 0x8f, 0x40, 0x2f, 0x08, 0x38, 0x81, 0xad, 0x49, 0x9e, 0xb8, 0x48, 0x51, 0x6c, 0x81, 0xd0, 0x49, 0xe9, 0x7f, 0x04, 0xc4, 0x26, 0xcc, 0x7b, 0x51, 0xa1, 0x02, 0x81, 0x39, 0x6f, 0xee, 0x9c, 0x11, 0x7f, 0x38, 0x67, 0xa3, 0x72, 0xd7, 0xb2, 0x48, 0x53, 0xb1, 0x3c, 0x95, 0x2a, 0xd8, 0x7f, 0x26, 0x6a, 0x15, 0x4b, 0xfc, 0xe1, 0xa5, 0x81, 0x6b, 0x71, 0xee, 0x2d, 0x55, 0x78, 0xd3, 0x7f, 0xd2, 0xe8, 0xb6, 0xc1, 0x27, 0x81, 0x31, 0xbb, 0x62, 0xf7, 0xec, 0x7f, 0x1b, 0x58, 0xe3, 0x4d, 0xd5, 0xa8, 0x07, 0x69, 0xff, 0xde, 0x7f, 0x4d, 0xba, 0x5b, 0x81, 0x9d, 0x47, 0xdc, 0x0e, 0x2b, 0x81, 0x8c, 0x49, 0xfe, 0x21, 0x2d, 0x85, 0x77, 0xfa, 0x7f, 0x68, 0x35, 0xb7, 0x19, 0x15, 0x0c, 0x10, 0x09, 0x97, 0x81, 0x3f, 0x16, 0x5e, 0xc0, 0xdf, 0xe5, 0x83, 0xa9, 0x7f, 0x95, 0xba, 0x66, 0x7f, 0x0b, 0xe6, 0xcd, 0x42, 0x03, 0x99, 0x2f, 0x07, 0x81, 0x56, 0x39, 0x41, 0xe5, 0x43, 0x16, };
const int32_t bias3[48] = {2725, -3996, -12931, -13519, -9797, 1388, 8635, -15453, 776, -671, -12467, -15670, 1374, -7722, -18764, 18889, -7355, -3874, 4675, -9554, -13992, 20737, -7558, -5879, 12570, -9011, 1696, 17081, -16417, 13939, -12428, 10325, -3691, 2393, -11057, 8585, 13348, 7723, -4913, -8156, 6096, 9884, -257, -13598, -13055, -8256, -10685, 20773, };
const float scales3[48] = {0.003168565182245345, 0.0031860985630792786, 0.003239369090776751, 0.0031684639869082403, 0.001834248503178975, 0.0026784395389896965, 0.0030729233801287895, 0.002859363779276424, 0.0030911675700330023, 0.002708064813053525, 0.002666545153012917, 0.0027258643403370556, 0.0030759817582391913, 0.002575730883948477, 0.002919277658769284, 0.0025780071007804, 0.0018664617191211962, 0.002892291059902986, 0.003110269885543814, 0.0027358957011666576, 0.002537233247661241, 0.002970243211710615, 0.0032432191257066464, 0.0032110913696335613, 0.003173563363734561, 0.002965908632887774, 0.0027966443743653374, 0.002987968131171884, 0.002987311582335977, 0.0031855000726941506, 0.0028975212038941443, 0.0022525019895390103, 0.002812895043258707, 0.0030331026080263825, 0.003242794810673854, 0.0030875031051046603, 0.0030141378422097044, 0.0026765548097487705, 0.003056842274467834, 0.0029013506199349784, 0.0027064022794723542, 0.003197963377228325, 0.0031825255266458544, 0.0028198501201005645, 0.002899068434477274, 0.003164051273347903, 0.0022108599726698925, 0.0027542329473728188, };
const int32_t shift3[48] = {-8, -8, -8, -8, -9, -8, -8, -8, -8, -8, -8, -8, -8, -8, -8, -8, -9, -8, -8, -8, -8, -8, -8, -8, -8, -8, -8, -8, -8, -8, -8, -8, -8, -8, -8, -8, -8, -8, -8, -8, -8, -8, -8, -8, -8, -8, -8, -8, };
const int32_t multiplier3[48] = {1741937131, 1751576209, 1780861991, 1741881498, 2016777557, 1472487709, 1689357494, 1571951862, 1699387343, 1488774375, 1465948701, 1498559769, 1691038855, 1416023028, 1604889865, 1417274392, 2052196363, 1590053826, 1709888952, 1504074568, 1394858729, 1632908474, 1782978570, 1765316149, 1744684910, 1630525514, 1537471504, 1642652852, 1642291910, 1751247185, 1592929128, 1238326065, 1546405404, 1667465793, 1782745300, 1697372782, 1657039803, 1471451568, 1680516813, 1595034371, 1487860388, 1758098959, 1749611911, 1550228998, 1593779727, 1739455583, 1215433124, 1514155576, };
const unsigned char CHWweight4[432] = {0x86, 0x57, 0xbd, 0x7f, 0x39, 0xa5, 0x42, 0x81, 0x79, 0x56, 0xa2, 0xa3, 0x38, 0x32, 0x43, 0x7f, 0xa5, 0xd6, 0xb6, 0xeb, 0x38, 0xa1, 0x15, 0x92, 0x11, 0x42, 0x81, 0x56, 0x04, 0x1b, 0xa4, 0x81, 0x8b, 0x1d, 0xf5, 0x6b, 0xb4, 0x7f, 0x38, 0x08, 0x7e, 0xc4, 0xb4, 0x63, 0x0e, 0x20, 0xe8, 0xe8, 0x39, 0xdd, 0x81, 0x1f, 0x33, 0x5e, 0x41, 0x6d, 0x81, 0xa3, 0x2c, 0x60, 0xd1, 0x37, 0x49, 0x7f, 0xc8, 0xc0, 0xe4, 0xed, 0x95, 0xcc, 0xd9, 0x99, 0x8c, 0x81, 0xed, 0xb0, 0x1b, 0xdd, 0x79, 0xf2, 0xeb, 0x9f, 0x81, 0xe0, 0x78, 0x3c, 0x76, 0xc3, 0x7a, 0xd5, 0x09, 0xcb, 0xec, 0xf6, 0x7f, 0x35, 0xb7, 0xe5, 0x0a, 0x7f, 0x99, 0xf5, 0x03, 0xbe, 0x89, 0x9e, 0xba, 0xde, 0x77, 0x22, 0xc1, 0x2f, 0x81, 0x5f, 0xcb, 0xe8, 0xf9, 0x21, 0x11, 0x7f, 0x43, 0x78, 0x72, 0xcb, 0x79, 0x88, 0x81, 0xc1, 0xc9, 0x65, 0x2b, 0x8d, 0xda, 0x2f, 0x6a, 0xb0, 0xce, 0x72, 0x90, 0x1c, 0x5e, 0x81, 0x65, 0x77, 0x3d, 0x35, 0xb8, 0x8d, 0x7f, 0x76, 0x27, 0x53, 0x1f, 0xcf, 0x32, 0x81, 0x86, 0xec, 0x51, 0x4a, 0x06, 0x99, 0x1f, 0x14, 0x86, 0xc6, 0x9a, 0x3d, 0x3c, 0x7f, 0x28, 0xdc, 0x38, 0x94, 0xaf, 0x45, 0xd9, 0x7e, 0x3c, 0x7f, 0x43, 0x2c, 0x0b, 0x2d, 0xca, 0x6c, 0x81, 0x4d, 0xcb, 0x64, 0x7f, 0x24, 0x22, 0xf3, 0x72, 0x1c, 0xbf, 0x42, 0x83, 0xf8, 0x7a, 0x9f, 0x33, 0xd5, 0x57, 0xd4, 0x81, 0xdb, 0x20, 0x17, 0xd0, 0x63, 0x81, 0x85, 0x3e, 0x4a, 0x02, 0x26, 0x0e, 0x07, 0xa1, 0x7f, 0xf2, 0x8c, 0x93, 0x91, 0x68, 0x81, 0x70, 0xa0, 0xb8, 0x89, 0x5b, 0x54, 0x23, 0x9f, 0xe6, 0xe3, 0xb4, 0x35, 0x82, 0x81, 0x72, 0x87, 0x29, 0xc3, 0x81, 0x67, 0x04, 0x6b, 0x9d, 0x2d, 0x81, 0xd1, 0x74, 0x62, 0x9f, 0xff, 0x42, 0x9f, 0xde, 0xa7, 0x09, 0x81, 0xea, 0xba, 0x20, 0x50, 0x50, 0xd0, 0x76, 0x4f, 0x81, 0xd2, 0xf0, 0x2a, 0x9b, 0x9d, 0xfc, 0xd2, 0x2d, 0xec, 0xd2, 0x95, 0x7f, 0xed, 0x51, 0x31, 0x81, 0x3d, 0xdc, 0xa4, 0x16, 0x1d, 0x88, 0x0f, 0xa4, 0x4e, 0x61, 0xe5, 0x9a, 0x47, 0xe2, 0x65, 0x33, 0x7f, 0x0e, 0xa3, 0x7f, 0x3b, 0x7d, 0xaf, 0x4d, 0x29, 0xd0, 0x49, 0xa1, 0x81, 0xaa, 0x8c, 0x86, 0xdd, 0x66, 0x0f, 0x6c, 0xe8, 0x53, 0xa7, 0xe8, 0x81, 0x81, 0x45, 0x8e, 0x99, 0x81, 0xf4, 0x78, 0x9d, 0x60, 0x34, 0xed, 0xca, 0x2b, 0x81, 0x4a, 0x65, 0xb1, 0x43, 0x08, 0x24, 0x50, 0x69, 0xd7, 0x38, 0x17, 0x23, 0x7f, 0xa8, 0xc6, 0x9f, 0xea, 0xce, 0x45, 0xc8, 0x8c, 0x8a, 0x81, 0xfc, 0x74, 0xa6, 0x15, 0xe0, 0x91, 0x45, 0x4d, 0xb4, 0x7f, 0x10, 0x73, 0x91, 0x4c, 0x7f, 0x3e, 0x43, 0x41, 0x49, 0xe1, 0x43, 0xfd, 0x53, 0xaa, 0x8c, 0x58, 0x7f, 0xf8, 0x5b, 0x8f, 0xe2, 0x3d, 0x8c, 0xb4, 0x66, 0x9e, 0xef, 0x81, 0x81, 0x9b, 0x64, 0x86, 0x7e, 0x81, 0x70, 0x4a, 0x20, 0x16, 0xe6, 0x2e, 0x75, 0x86, 0xcc, 0x81, 0x36, 0x7c, 0x05, 0x97, 0x2b, 0x67, 0x7a, 0x81, 0x26, 0x1c, 0xa8, };
const int32_t offsetBias4[48] = {-10020, -23205, -29879, -23015, 4215, -10496, 4589, 9818, 8658, -931, 5268, -25869, -16581, -5416, -358, -8428, -7855, -47724, -19919, -16051, -17411, 27625, -11221, -5555, 3217, -21207, -27487, 31405, 9393, -9476, -19295, 3665, 7202, -1850, 14568, 13766, -24197, -18863, -14418, 4658, -2269, -9928, 27539, 15779, 13515, 22607, -15235, 22378, };
const int32_t offsetRBias4[48] = {0, 0, 0, 0, 0, 0, 0, 0, 0, 0, 0, 0, 0, 0, 0, 0, 0, 0, 0, 0, 0, 0, 0, 0, 0, 0, 0, 0, 0, 0, 0, 0, 0, 0, 0, 0, 0, 0, 0, 0, 0, 0, 0, 0, 0, 0, 0, 0, };
const float scales4[48] = {0.0015353265782880113, 0.0016931306054788855, 0.0016156169114492404, 0.0017637151992725307, 0.0020334623401020145, 0.0019018867757947381, 0.0019403161496490972, 0.0019877838189571533, 0.001805449552528978, 0.0018844071713568613, 0.0017579023695497695, 0.0019194681722216529, 0.001607890501007289, 0.0018923156119571452, 0.0018202005158372194, 0.0020178035806210724, 0.0019185210720247153, 0.0009593446683591692, 0.0018937723965974148, 0.0014704389850765762, 0.001945606978460102, 0.0020283765442653703, 0.0019274602923574093, 0.002036890484188348, 0.001986991942487272, 0.0016162138979187578, 0.0019283048760671666, 0.0012853568783179857, 0.0018337051612156217, 0.0019992428438298736, 0.0016219419613588326, 0.002028624322630146, 0.001733416868072775, 0.0018288358091990851, 0.0019772224472831374, 0.0019181617209459766, 0.0018944342256506964, 0.0014691231153250459, 0.001857776068630503, 0.0019580214352583995, 0.0020379098530750113, 0.0017626563452370942, 0.0016762804088024082, 0.0018714900939721221, 0.0017588378777764252, 0.0015678029320290126, 0.0019247997540531797, 0.0018978315785659686, };
const int32_t shift4[48] = {-9, -9, -9, -9, -8, -9, -9, -8, -9, -9, -9, -9, -9, -9, -9, -8, -9, -10, -9, -9, -9, -8, -9, -8, -8, -9, -9, -9, -9, -8, -9, -8, -9, -9, -8, -9, -9, -9, -9, -8, -8, -9, -9, -9, -9, -9, -9, -9, };
const int32_t multiplier4[48] = {1688109425, 1861616788, 1776389580, 1939225370, 1117907744, 2091146625, 2133400168, 1092795711, 1985112776, 2071927596, 1932834096, 2110477575, 1767894302, 2080623019, 2001331632, 1109299250, 2109436227, 2109621236, 2082224770, 1616764762, 2139217496, 1115111798, 2119265004, 1119792386, 1092360373, 1777045974, 2120193633, 1413264834, 2016180147, 1099095377, 1783344046, 1115248016, 1905912002, 2010826238, 1086989536, 2109041116, 2082952459, 1615317948, 2042646389, 1076433668, 1120352790, 1938061147, 1843089801, 2057725120, 1933862698, 1723817554, 2116339711, 2086687888, };
const unsigned char weight5[384] = {0xdf, 0xfa, 0x18, 0x45, 0xaa, 0xec, 0xe9, 0xe8, 0x07, 0xf8, 0xc3, 0x29, 0x50, 0xc5, 0xe7, 0xad, 0x76, 0x23, 0xf9, 0x7f, 0x4c, 0x3a, 0x06, 0x1e, 0x3b, 0xa3, 0x01, 0xd3, 0xa9, 0xc2, 0x67, 0x57, 0xd8, 0x17, 0x33, 0xe7, 0x7a, 0x60, 0xe2, 0xb3, 0x09, 0x54, 0x01, 0x7b, 0xa8, 0xc8, 0xf7, 0x91, 0x15, 0x0d, 0xba, 0xea, 0x9b, 0x58, 0x17, 0x33, 0x04, 0xe6, 0x24, 0xe0, 0x95, 0x23, 0x1c, 0xe3, 0x5b, 0xcf, 0x0f, 0x01, 0xe8, 0xab, 0x43, 0x54, 0x20, 0x43, 0x41, 0xae, 0x66, 0xf7, 0x55, 0x54, 0x66, 0x17, 0x18, 0x21, 0x9f, 0xbd, 0xc3, 0x7e, 0x62, 0x7c, 0xff, 0x08, 0x81, 0x14, 0xe0, 0xb8, 0x20, 0xab, 0x7a, 0xfb, 0x82, 0x2c, 0xb0, 0x3c, 0x81, 0xe7, 0x5f, 0x30, 0x4d, 0x38, 0x4a, 0xf5, 0x54, 0x44, 0x32, 0xa7, 0xe5, 0x5c, 0xd3, 0x4b, 0x79, 0x56, 0xe9, 0x6e, 0xf9, 0x8b, 0xd0, 0xde, 0x58, 0x8d, 0xc8, 0xbb, 0x5c, 0xff, 0x71, 0xd2, 0x01, 0xd3, 0xd9, 0x03, 0xec, 0x31, 0xb6, 0x2f, 0xfa, 0x3e, 0x0b, 0xb0, 0x92, 0xab, 0x95, 0xad, 0x77, 0x57, 0x44, 0xf3, 0xaf, 0x0f, 0x2d, 0x6f, 0x9c, 0x64, 0xac, 0x81, 0xe3, 0x61, 0xbd, 0x3b, 0x05, 0xe8, 0xb8, 0x54, 0x05, 0xd0, 0x57, 0x9c, 0xe8, 0x3a, 0xfc, 0x27, 0x25, 0x8f, 0x01, 0x55, 0xb9, 0x2e, 0x0b, 0xb5, 0x78, 0x57, 0x53, 0xbe, 0xa4, 0xba, 0x21, 0x1c, 0x42, 0x0f, 0x84, 0xa6, 0x4b, 0x39, 0x83, 0x5f, 0x09, 0xa7, 0x5e, 0xc3, 0xfa, 0x99, 0x2f, 0xf3, 0xe9, 0x41, 0xff, 0x5f, 0x0d, 0xc3, 0x54, 0x24, 0x23, 0x8c, 0x6e, 0x5c, 0x98, 0xe7, 0x7f, 0x78, 0x01, 0xf2, 0x4b, 0x38, 0xfb, 0x77, 0xd0, 0xa7, 0xc8, 0xc8, 0x25, 0x2b, 0xd8, 0x23, 0x66, 0x8d, 0x17, 0x9d, 0x7c, 0xc2, 0x05, 0xbc, 0x75, 0xfb, 0x6f, 0xa1, 0x35, 0xa5, 0x44, 0x8e, 0x22, 0xf3, 0x07, 0xe9, 0xc9, 0xd9, 0x6f, 0x5a, 0xf3, 0x7b, 0x06, 0x83, 0xf1, 0x7f, 0x0a, 0x30, 0xd9, 0xb7, 0xdb, 0xea, 0xf1, 0x4c, 0x1e, 0x09, 0xb9, 0x03, 0x7c, 0x8b, 0x01, 0x21, 0x7f, 0x91, 0x0d, 0xa5, 0x5e, 0x64, 0xe8, 0x12, 0x5c, 0x73, 0x35, 0xba, 0x48, 0xb0, 0x16, 0x84, 0x57, 0x3e, 0xd9, 0x76, 0x2d, 0x5a, 0x01, 0x04, 0xe2, 0x1b, 0x01, 0xa2, 0x1a, 0xd5, 0xba, 0x8e, 0x11, 0x73, 0x8d, 0xb4, 0xf3, 0xc5, 0xc5, 0x3d, 0x10, 0x9d, 0x73, 0x53, 0xae, 0xba, 0xa5, 0xd6, 0x16, 0x58, 0xad, 0x70, 0xef, 0x28, 0x4e, 0x6d, 0xd2, 0xc4, 0x7e, 0xb2, 0xe3, 0x23, 0x89, 0xdf, 0x3a, 0x44, 0x4a, 0xae, 0xcc, 0x5a, 0x76, 0x7e, 0x7a, 0xe2, 0xd1, 0x02, 0x0e, 0x81, 0xe0, 0x86, 0x2d, 0xb4, 0xbc, 0x18, 0x5e, 0x99, 0x39, 0xc7, 0x35, 0xc7, 0xb5, 0xba, 0x6a, 0x16, 0xf4, 0x7f, };
const int32_t bias5[8] = {1174, 4770, -12124, 15551, 4451, 6738, -11302, 10613, };
const float scales5[8] = {0.0028007331250963297, 0.002780931532446777, 0.0028602021025592615, 0.0028595990961626234, 0.0028613148941400296, 0.0028299271946288637, 0.002858925147836969, 0.002851872875166123, };
const int32_t shift5[8] = {-8, -8, -8, -8, -8, -8, -8, -8, };
const int32_t multiplier5[8] = {1539719319, 1528833278, 1572412735, 1572081229, 1573024498, 1555768928, 1571710721, 1567833694, };
const unsigned char weight6[384] = {0xbc, 0x49, 0xdb, 0x17, 0x3c, 0xde, 0xa4, 0x7f, 0x56, 0xa4, 0xfc, 0xf2, 0xa7, 0x26, 0x1f, 0x81, 0x01, 0x1c, 0x1e, 0x93, 0x8b, 0x7f, 0x5f, 0x20, 0x28, 0x81, 0x1c, 0xbc, 0xe4, 0xd0, 0x0e, 0x79, 0x8c, 0x0f, 0xf3, 0xdc, 0x3b, 0x81, 0x5d, 0x11, 0xca, 0x88, 0xcc, 0x81, 0x7d, 0x23, 0x15, 0x46, 0xe6, 0x7f, 0xc5, 0xec, 0xed, 0xdd, 0x29, 0x09, 0x8b, 0x56, 0x8e, 0x7f, 0xdb, 0xc3, 0x0b, 0x1a, 0xae, 0xbe, 0x2b, 0xce, 0x3e, 0x7f, 0xc5, 0xc3, 0x81, 0xcc, 0x96, 0x4c, 0x12, 0xeb, 0x9b, 0xd3, 0x81, 0x41, 0xaa, 0xfa, 0x47, 0xf1, 0x2a, 0xa2, 0xcb, 0x63, 0x47, 0x81, 0xe8, 0x02, 0x9b, 0xd0, 0x28, 0x25, 0xdd, 0xfc, 0x6b, 0x81, 0x6a, 0xcc, 0x76, 0x29, 0x8b, 0x81, 0xae, 0x15, 0xd9, 0x45, 0x2b, 0xe9, 0xa5, 0x6f, 0x71, 0x7f, 0x99, 0xea, 0x85, 0x04, 0x55, 0x43, 0x0b, 0xb8, 0x7f, 0xc5, 0x56, 0x40, 0x06, 0xf7, 0x7c, 0x81, 0xb1, 0xd4, 0x40, 0x36, 0xc0, 0x81, 0xbd, 0x9c, 0xf1, 0x72, 0xbb, 0x5c, 0x2b, 0x81, 0x1c, 0xef, 0x7b, 0x53, 0xb3, 0xbc, 0xdf, 0x7f, 0x40, 0x90, 0x2b, 0xd3, 0x6b, 0x0e, 0xc2, 0x3f, 0xfb, 0x7f, 0x5b, 0x01, 0x77, 0x36, 0x2b, 0xce, 0x43, 0x7f, 0xad, 0x32, 0x23, 0xdd, 0x36, 0x5d, 0x7f, 0x6c, 0x2a, 0x55, 0x76, 0x7f, 0x83, 0x9c, 0x49, 0xeb, 0x76, 0x71, 0x94, 0x3d, 0x5d, 0x49, 0x2b, 0x2a, 0x7f, 0xc0, 0x58, 0x67, 0x57, 0xf8, 0x28, 0x81, 0x3a, 0x1f, 0xd7, 0x75, 0x40, 0xf4, 0x9e, 0x8e, 0xbd, 0x7f, 0x7f, 0x43, 0x8b, 0x27, 0x5e, 0x74, 0xbb, 0xbd, 0x96, 0xa9, 0x7f, 0xdb, 0xc7, 0x47, 0x71, 0xe9, 0xb7, 0x74, 0x4d, 0x7f, 0x6d, 0x3e, 0x25, 0x68, 0x62, 0x29, 0x7a, 0x89, 0xa7, 0xff, 0x8d, 0x7f, 0xac, 0xa6, 0x82, 0x81, 0x5a, 0xf3, 0xec, 0x3f, 0xd7, 0x5a, 0x81, 0xe9, 0x0f, 0xab, 0x06, 0x3c, 0xfa, 0xcd, 0x6d, 0x2e, 0x75, 0xf7, 0x2e, 0x7f, 0xb7, 0xc5, 0xdb, 0xa5, 0xe6, 0x8f, 0xb1, 0x7f, 0x81, 0x91, 0xf9, 0x69, 0xd4, 0x61, 0xcd, 0xa3, 0x99, 0xeb, 0x06, 0x9e, 0xdd, 0xca, 0x6f, 0x7f, 0xc2, 0x42, 0x06, 0x81, 0x98, 0x50, 0x09, 0xc7, 0x83, 0x4f, 0xea, 0xc4, 0x81, 0xb1, 0x2d, 0xae, 0x81, 0xea, 0xd8, 0x17, 0x7d, 0xda, 0x03, 0x85, 0x81, 0x36, 0x02, 0x26, 0xc0, 0x2d, 0xf3, 0xab, 0xdc, 0xa7, 0x3d, 0x67, 0x11, 0x81, 0xec, 0x60, 0x3f, 0x49, 0x82, 0x62, 0xc4, 0xe0, 0x81, 0x77, 0xcc, 0x3b, 0xfc, 0x81, 0x83, 0x54, 0x5a, 0x5a, 0xeb, 0x11, 0x7f, 0xf0, 0x61, 0x9d, 0x3a, 0x8c, 0xef, 0x54, 0x7f, 0x00, 0x05, 0x95, 0x58, 0xf2, 0xa6, 0x26, 0xdb, 0x81, 0x99, 0x28, 0x34, 0xe6, 0x50, 0xc2, 0x83, 0x74, 0x7f, 0xc8, 0x92, 0x2a, };
const int32_t bias6[48] = {-3543, -32912, 3202, -42320, 29014, -36657, -9896, 33979, -24927, 39185, 31875, 10950, 44097, -7604, 20202, 32405, 19155, 25665, 45097, 15, -1927, 31586, 17940, -3104, 12273, -26409, 21917, -1899, -44642, -22560, -25189, 30289, 20186, -49205, -28345, 35783, 36448, -2857, 25509, -10018, -12974, -24196, -1644, -34014, 43025, -24509, 11351, -40619, };
const float scales6[48] = {0.002105110343917228, 0.0018204214778055315, 0.00196756697592355, 0.0018877601382380825, 0.002169966562692191, 0.001956262880455167, 0.0019489033249956607, 0.002003049482544145, 0.0014852640512660787, 0.0021672996778545686, 0.0020135740102860764, 0.001996808397797065, 0.001696463849190102, 0.0019144177201343455, 0.001951440827031131, 0.0019478010271335034, 0.001969332724081575, 0.002141622097997642, 0.0014232976846015484, 0.002090726865070653, 0.002087433418573169, 0.0020293074678365696, 0.0019087361433196067, 0.00213080028055863, 0.0020997176977983066, 0.0016820890927796268, 0.002143365131478323, 0.0020720603066640636, 0.0018567793172322613, 0.0019314642677527496, 0.00181766991265077, 0.0016142703349267297, 0.0021498489906968572, 0.0019309914390291537, 0.0021390129992991825, 0.0021716009291564576, 0.0020330833740808433, 0.002149851171305882, 0.0020756077941129643, 0.0019368189349311513, 0.0018161751051641059, 0.002164526851761813, 0.0020865529976793096, 0.0020096460065623066, 0.00195371901831004, 0.0020083994250696593, 0.0020807405843230684, 0.002033135708697444, };
const int32_t shift6[48] = {-8, -9, -8, -9, -8, -8, -9, -8, -9, -8, -8, -8, -9, -9, -9, -9, -8, -8, -9, -8, -8, -8, -9, -8, -8, -9, -8, -8, -9, -9, -9, -9, -8, -9, -8, -8, -8, -8, -8, -9, -9, -8, -8, -8, -8, -8, -8, -8, };
const int32_t multiplier6[48] = {1157296650, 2001574582, 1081681384, 2075614222, 1192951734, 1075466892, 2142841867, 1101188099, 1633065095, 1191485598, 1106974019, 1097757026, 1865281728, 2104924544, 2145631880, 2141629878, 1082652115, 1177369200, 1564932354, 1149389249, 1147578658, 1115623579, 2098677584, 1171419842, 1154332012, 1849476516, 1178327442, 1139127200, 2041550450, 2123667421, 1998549204, 1774909004, 1181891982, 2123147540, 1175934832, 1193850236, 1117699405, 1181893180, 1141077452, 2129554940, 1996905646, 1189961221, 1147094641, 1104814576, 1074068389, 1104129261, 1143899233, 1117728176, };
const unsigned char CHWweight7[432] = {0x6a, 0xcf, 0x82, 0x79, 0xc9, 0x9f, 0xee, 0x7f, 0x05, 0xb2, 0xe2, 0x8b, 0xbe, 0xbe, 0x39, 0x4d, 0x81, 0x3c, 0x60, 0x06, 0x38, 0x43, 0x79, 0x81, 0x9f, 0x8c, 0xce, 0xd0, 0x33, 0xaa, 0xf1, 0x7f, 0x66, 0x9b, 0xb6, 0x2c, 0x50, 0x3c, 0xc0, 0x81, 0x56, 0x39, 0x91, 0x5b, 0x2b, 0x11, 0x37, 0x35, 0x18, 0x81, 0x3c, 0xc0, 0x1c, 0xe5, 0x7f, 0x7d, 0x97, 0xdd, 0x14, 0xeb, 0xac, 0x34, 0x9e, 0x9e, 0x9a, 0xa8, 0x81, 0xcf, 0xeb, 0xb1, 0x25, 0xe0, 0x0e, 0x05, 0xcd, 0xfe, 0xbe, 0x77, 0x6d, 0x7f, 0x9a, 0xeb, 0x05, 0x9e, 0x22, 0x1f, 0x81, 0x29, 0x03, 0x27, 0x7f, 0x71, 0x5d, 0x31, 0xe0, 0x14, 0xf0, 0x98, 0xd5, 0xbc, 0x2b, 0x7f, 0xe0, 0xfc, 0x0a, 0xa7, 0x94, 0x16, 0x14, 0x5e, 0x73, 0x10, 0x53, 0x6a, 0x73, 0xe6, 0x81, 0xe5, 0xfc, 0x9c, 0x36, 0x7f, 0x9d, 0x89, 0x4d, 0x0e, 0xa6, 0x26, 0x0e, 0xa0, 0x97, 0x72, 0x81, 0xae, 0xa1, 0x67, 0x90, 0x38, 0x2b, 0x5d, 0x29, 0x7f, 0x03, 0x3a, 0x18, 0x81, 0xc8, 0x26, 0x35, 0x96, 0x47, 0x8f, 0x85, 0x98, 0xd0, 0x4e, 0x7f, 0x17, 0xf5, 0xaf, 0xef, 0x75, 0x8e, 0x9a, 0x7f, 0xaf, 0x70, 0xed, 0x73, 0x5b, 0x23, 0x49, 0x7f, 0xb3, 0x2d, 0xe1, 0x32, 0x35, 0xc5, 0x16, 0x32, 0x4e, 0xcc, 0xe5, 0x58, 0x81, 0x0e, 0xb5, 0x1b, 0x3d, 0xaf, 0xc0, 0x07, 0xe8, 0x4b, 0xea, 0x81, 0x87, 0x7f, 0xf5, 0x23, 0x55, 0x29, 0x0a, 0xbc, 0xc9, 0x84, 0x19, 0xc0, 0x81, 0x12, 0x36, 0x58, 0x97, 0xc7, 0x73, 0x0b, 0x7f, 0x83, 0x72, 0xd0, 0x26, 0x6d, 0xe7, 0xf2, 0xd5, 0xaf, 0x15, 0x44, 0xfc, 0x60, 0x81, 0x2c, 0x19, 0xbc, 0xef, 0x81, 0x9b, 0x04, 0xe6, 0x5b, 0x92, 0xfb, 0xcf, 0xd0, 0x7f, 0x15, 0xd7, 0xe2, 0xdd, 0x77, 0xec, 0xb0, 0xe9, 0x7f, 0x50, 0x78, 0xa1, 0x94, 0x73, 0xe9, 0x01, 0x4b, 0x7f, 0xe5, 0xb9, 0xd7, 0xf0, 0x29, 0x65, 0x87, 0x9d, 0x81, 0xeb, 0x9f, 0x71, 0x38, 0x45, 0xc3, 0x64, 0x81, 0x36, 0x53, 0x1e, 0xf2, 0x07, 0xc3, 0xc6, 0x93, 0x18, 0xa7, 0xad, 0x3a, 0x7f, 0xbe, 0x01, 0x52, 0x51, 0x92, 0x77, 0xd2, 0x3f, 0x75, 0xdf, 0x1a, 0x7f, 0xbc, 0x32, 0x9d, 0xdc, 0xdd, 0x08, 0x81, 0x5b, 0xc8, 0x81, 0xdc, 0x50, 0x61, 0xcc, 0x40, 0x51, 0x03, 0xad, 0x21, 0xf9, 0xee, 0xd9, 0x1a, 0xf7, 0x75, 0x4c, 0x81, 0x8a, 0x2b, 0x33, 0xde, 0x39, 0x92, 0xf4, 0x7f, 0x2d, 0x90, 0xf4, 0xfd, 0x79, 0x08, 0x55, 0x7f, 0xce, 0xd0, 0xe3, 0x69, 0x0c, 0x02, 0xf4, 0x6f, 0x06, 0x81, 0x3a, 0x9e, 0x7f, 0xce, 0x7c, 0xb8, 0x7a, 0xec, 0x8c, 0xdb, 0x05, 0xc4, 0x6c, 0xfc, 0x65, 0x81, 0x20, 0xc7, 0x5f, 0x58, 0xbe, 0x82, 0xc8, 0x77, 0x81, 0x22, 0xda, 0x30, 0x10, 0x0f, 0xb8, 0x0a, 0xc5, 0x40, 0x34, 0xf5, 0x81, 0x13, 0x4e, 0x7c, 0x51, 0x9f, 0xbc, 0x81, 0x71, 0x03, 0xe2, 0x1a, 0x81, 0xab, 0x59, 0xdf, 0x7a, 0x3d, 0x91, 0x11, 0x3b, 0x7f, 0xff, 0xe7, 0x5e, 0x6b, 0x0b, 0x70, 0xd8, 0xbd, 0xeb, 0x9f, 0xbc, 0xba, 0x7f, 0x70, 0x57, };
const int32_t offsetBias7[48] = {-1396, 19122, 5939, 3940, -29017, 2402, 35000, -13822, -19035, 33711, -18997, -32070, -11647, 29380, 28077, 564, 18309, -17422, 24643, 44572, -2806, 7517, -25730, 34976, 16258, 19667, -36502, -29778, -10437, -31094, -38233, 31439, 21788, -8725, -38277, 25851, 6604, 22455, -32819, -5358, -3318, 29893, 16359, -47893, -11837, -46406, 41587, -4388, };
const int32_t offsetRBias7[48] = {0, 0, 0, 0, 0, 0, 0, 0, 0, 0, 0, 0, 0, 0, 0, 0, 0, 0, 0, 0, 0, 0, 0, 0, 0, 0, 0, 0, 0, 0, 0, 0, 0, 0, 0, 0, 0, 0, 0, 0, 0, 0, 0, 0, 0, 0, 0, 0, };
const float scales7[48] = {0.0019397121095390273, 0.0016220969760518936, 0.002058865863158665, 0.0020099749955155193, 0.0016729808274031398, 0.002183350228557252, 0.002013872457235604, 0.0021105283037345804, 0.00198781124255366, 0.0018944369303793543, 0.0017896504007358979, 0.0021694018512654067, 0.0018508417539003627, 0.0021943383813191656, 0.0021361598343000105, 0.0020977419400039763, 0.002119747948119698, 0.0021298289676697285, 0.0018899703027767689, 0.0017490786671412047, 0.0020226674348339194, 0.0022444322039340005, 0.0022619994808003342, 0.0019385944491724387, 0.0016553803358141147, 0.0020657596741826055, 0.0016068063627155623, 0.002162213021254416, 0.0018176212111061327, 0.0021488041072531784, 0.0021754483356476273, 0.002175669499541321, 0.0022164194486873753, 0.0022180681432306553, 0.001984070120827393, 0.0018718898534275177, 0.0021095160072919384, 0.00201664964957765, 0.002009819458294455, 0.0021688808517481392, 0.00221431497991308, 0.002193392915708284, 0.002171144068834514, 0.0015953817022687261, 0.002021207391887801, 0.0015873967223790752, 0.002027422458548336, 0.002245798322467915, };
const int32_t shift7[48] = {-9, -9, -8, -8, -9, -8, -8, -8, -8, -9, -9, -8, -9, -8, -8, -8, -8, -8, -9, -9, -8, -8, -8, -9, -9, -8, -9, -8, -9, -8, -8, -8, -8, -8, -8, -9, -8, -8, -8, -8, -8, -8, -8, -9, -8, -9, -8, -8, };
const int32_t multiplier7[48] = {2132736019, 1783514487, 1131873478, 1104995440, 1839461873, 1200309482, 1107138092, 1160275205, 1092810788, 2082955433, 1967741425, 1192641280, 2035022030, 1206350283, 1174366288, 1153245828, 1165343758, 1170885858, 2078044324, 1923132332, 1111973182, 1233889653, 1243547366, 2131507138, 1820109928, 1135663391, 1766702279, 1188689179, 1998495657, 1181317551, 1195965370, 1196086956, 1218489478, 1219395857, 1090754084, 2058164660, 1159718689, 1108664869, 1104909932, 1192354858, 1217332534, 1205830508, 1193599075, 1754140732, 1111170515, 1745361154, 1114587284, 1234640685, };
const unsigned char weight8[384] = {0x81, 0x43, 0x96, 0xc8, 0x74, 0x0f, 0xac, 0xa8, 0xf4, 0x4d, 0xf7, 0x96, 0x1e, 0x04, 0xee, 0xde, 0xd3, 0xbd, 0x7b, 0x41, 0xb5, 0x6a, 0xc0, 0xcb, 0x28, 0x93, 0x7b, 0x0c, 0x7b, 0xa1, 0x42, 0x63, 0xb4, 0xa1, 0x97, 0x1d, 0x13, 0xec, 0x19, 0xfe, 0x16, 0x63, 0xf9, 0x25, 0xfb, 0x2f, 0x0e, 0xee, 0xd3, 0x81, 0x9c, 0x1d, 0x15, 0x63, 0x57, 0x84, 0x8b, 0xea, 0xa9, 0xc7, 0x77, 0x1a, 0x60, 0x28, 0x72, 0x42, 0x55, 0x17, 0xca, 0xdc, 0x14, 0xc0, 0x15, 0x94, 0xe2, 0xf5, 0x70, 0xc0, 0x6e, 0x5a, 0x5b, 0x54, 0xcc, 0x62, 0x00, 0x53, 0xc4, 0x5a, 0x7c, 0x48, 0xf3, 0xfc, 0x1f, 0xac, 0x04, 0xc5, 0x92, 0xab, 0xf7, 0x55, 0x2b, 0x8e, 0x1c, 0xdc, 0xb2, 0xa8, 0x8b, 0x81, 0x89, 0xf2, 0x26, 0xda, 0x76, 0x82, 0x54, 0xe0, 0xcc, 0xc9, 0xb9, 0x33, 0xcc, 0x5f, 0x2d, 0xb5, 0xac, 0x23, 0xb1, 0xc4, 0x19, 0x07, 0x4e, 0x30, 0x46, 0x76, 0x2f, 0x27, 0x4d, 0xf0, 0x8a, 0x3e, 0xe9, 0x79, 0x3b, 0x0a, 0x38, 0xc6, 0x83, 0x82, 0x71, 0x60, 0x00, 0x48, 0xd0, 0xf7, 0xff, 0x0a, 0x2c, 0xed, 0x12, 0xa4, 0xf7, 0xd3, 0x55, 0x9d, 0x64, 0xf3, 0xd1, 0xe7, 0x35, 0xfc, 0xa2, 0x32, 0xbf, 0x6c, 0x99, 0x17, 0xf5, 0xe1, 0xbd, 0x1f, 0x25, 0x50, 0xd7, 0x7e, 0x51, 0x14, 0x7d, 0x09, 0x81, 0xa4, 0x21, 0x93, 0x49, 0xf8, 0x78, 0xa8, 0x73, 0x95, 0xa6, 0xca, 0x29, 0x55, 0x33, 0x55, 0x58, 0xa3, 0xbc, 0x6c, 0x51, 0x81, 0x76, 0x83, 0xb2, 0x08, 0x3f, 0xe9, 0x30, 0x6b, 0xb2, 0x17, 0x19, 0xaf, 0xf1, 0xe3, 0x6d, 0x73, 0x34, 0x00, 0x8a, 0x8d, 0xfc, 0x5c, 0x06, 0x28, 0xe2, 0x5e, 0x2c, 0xbf, 0x01, 0x7d, 0x9f, 0x75, 0x7f, 0x0d, 0xb2, 0x7b, 0x9c, 0x6b, 0xf1, 0xd3, 0xd0, 0x12, 0xb9, 0xe9, 0x31, 0xa8, 0x30, 0x96, 0x1a, 0xbb, 0x58, 0xc5, 0xef, 0xfa, 0x25, 0x5a, 0x2c, 0x7a, 0xdc, 0xaf, 0x8d, 0xef, 0x86, 0x0c, 0xe5, 0xd8, 0xf0, 0x85, 0x01, 0x4a, 0x98, 0x5d, 0xf5, 0x0d, 0x8a, 0xda, 0xca, 0x75, 0xfd, 0xd5, 0xe9, 0x0a, 0x60, 0x10, 0x07, 0x34, 0x7c, 0x81, 0x0e, 0xf5, 0x93, 0x74, 0xbb, 0xf0, 0x82, 0xc4, 0x54, 0x24, 0x46, 0xd0, 0x93, 0x14, 0x7c, 0xe0, 0x8f, 0xbb, 0xc3, 0x3c, 0xf2, 0x52, 0x90, 0x52, 0x3d, 0xc3, 0x9f, 0xa6, 0x94, 0x9a, 0x73, 0x59, 0xcf, 0xa8, 0xec, 0x1c, 0xed, 0x70, 0x4e, 0x3d, 0x5a, 0xae, 0x05, 0x1e, 0x15, 0x6e, 0x93, 0x36, 0xa1, 0xc2, 0x45, 0x08, 0xc1, 0xec, 0xdb, 0x81, 0x74, 0x0a, 0xe1, 0x0f, 0x41, 0x8a, 0x6c, 0xa5, 0xf3, 0xbd, 0xb3, 0x8d, 0xdf, 0x7c, 0x73, 0xec, 0xb2, 0x0c, 0x51, 0xa6, 0xd1, 0x29, 0x97, 0x45, 0x44, 0x66, 0x02, 0x8d, 0x24, 0x07, };
const int32_t bias8[8] = {17059, 6263, -29788, -2885, -11190, -1902, -6014, 1575, };
const float scales8[8] = {0.00241667073784512, 0.0023002756098116856, 0.002372087875480788, 0.0023811471484287356, 0.0023041496524276867, 0.002370108817797177, 0.002283912423600577, 0.002409112870312784, };
const int32_t shift8[8] = {-8, -8, -8, -8, -8, -8, -8, -8, };
const int32_t multiplier8[8] = {1328578788, 1264589890, 1304069101, 1309049489, 1266719667, 1302981102, 1255594133, 1324423807, };
const unsigned char weight9[384] = {0x99, 0x29, 0xb1, 0x9d, 0xcb, 0x81, 0x12, 0x64, 0xe2, 0xe2, 0x7f, 0x53, 0xf7, 0x0e, 0xcd, 0x41, 0x81, 0x68, 0xd3, 0xab, 0xef, 0x19, 0x71, 0x11, 0x63, 0x81, 0x62, 0xf9, 0xa3, 0xaa, 0xa9, 0xe0, 0x01, 0xe8, 0x29, 0x54, 0x7f, 0x63, 0xe2, 0x10, 0x78, 0xb5, 0xd3, 0x81, 0xc6, 0xac, 0x27, 0x54, 0x7f, 0xb2, 0x7e, 0x4f, 0xd4, 0x7e, 0x22, 0x7c, 0x17, 0x75, 0x7f, 0x46, 0xfb, 0x4c, 0xcc, 0x01, 0x5d, 0x5d, 0x3e, 0x81, 0x48, 0x0a, 0xa0, 0x4f, 0x60, 0xa5, 0x08, 0x7e, 0x0b, 0x81, 0x8a, 0x77, 0x17, 0x46, 0xa4, 0xde, 0x0c, 0x81, 0x4a, 0x68, 0x7f, 0x15, 0xa0, 0x09, 0x9e, 0xeb, 0xd8, 0x0d, 0xe2, 0xa8, 0xaf, 0x6d, 0x81, 0xa8, 0x17, 0x72, 0x7f, 0x50, 0x51, 0xfa, 0x7b, 0x3b, 0xe4, 0x03, 0x1f, 0x58, 0xbd, 0x81, 0x34, 0xb4, 0x27, 0xf1, 0x05, 0x7f, 0x51, 0xa1, 0x2b, 0xd7, 0xae, 0x84, 0x7f, 0xb0, 0x0f, 0x15, 0x96, 0x25, 0x0a, 0xe9, 0x1b, 0x81, 0xcd, 0xbf, 0x89, 0x12, 0xd0, 0x5d, 0x81, 0x9f, 0x39, 0x79, 0x84, 0x29, 0xc3, 0x1a, 0x86, 0x7f, 0xad, 0x96, 0xbf, 0xfc, 0x73, 0x82, 0x83, 0x2e, 0x86, 0x3c, 0xb4, 0x55, 0x26, 0x7f, 0x73, 0x27, 0xcd, 0x93, 0x90, 0xc5, 0x7f, 0x33, 0x81, 0x06, 0x7a, 0xd7, 0x36, 0x17, 0x0b, 0xe3, 0x22, 0xaf, 0x71, 0xc1, 0x9c, 0xce, 0x79, 0x7f, 0xac, 0x7f, 0x11, 0xfb, 0x0f, 0x18, 0x23, 0xa6, 0xf2, 0x5f, 0x6d, 0x96, 0x81, 0xa8, 0x02, 0xfc, 0xa7, 0x4e, 0x43, 0x86, 0x2a, 0x3d, 0x81, 0x19, 0x81, 0x42, 0xed, 0x4e, 0x7a, 0xfb, 0xac, 0xc5, 0x92, 0xa3, 0xb0, 0x1e, 0x2c, 0x81, 0x8e, 0xb1, 0x2d, 0xc5, 0x6d, 0xc6, 0xec, 0x32, 0x81, 0x99, 0x9c, 0x59, 0xe2, 0x81, 0x90, 0x0b, 0xd4, 0xbf, 0x85, 0x4d, 0x63, 0x3a, 0x81, 0x10, 0x4f, 0x3e, 0xe3, 0xd1, 0x7f, 0xd3, 0x8f, 0x5a, 0x1d, 0x40, 0xbd, 0xdc, 0x3b, 0x81, 0x9b, 0xdf, 0x27, 0x65, 0x7f, 0x1c, 0xa8, 0x02, 0xbb, 0x0b, 0x76, 0x9a, 0x72, 0x70, 0xdf, 0x43, 0x90, 0xa9, 0x53, 0x7f, 0x2a, 0x68, 0xd2, 0x7f, 0x93, 0xb7, 0xc2, 0xf1, 0xc9, 0x6d, 0x0a, 0x7f, 0xa4, 0x77, 0x58, 0x33, 0xf5, 0x1a, 0x0b, 0x50, 0x81, 0x4a, 0xe1, 0xde, 0xdd, 0x72, 0x81, 0xfd, 0xfd, 0xaa, 0x0b, 0x59, 0x6c, 0xaa, 0xaa, 0x94, 0xc4, 0x7f, 0x59, 0x18, 0x64, 0xae, 0x17, 0x3e, 0xb2, 0xba, 0x7f, 0xf4, 0x14, 0xdc, 0xf1, 0x03, 0x7f, 0x01, 0x3e, 0xdb, 0x73, 0xca, 0x27, 0xf4, 0x13, 0x7f, 0xbf, 0xd7, 0xbc, 0x81, 0x93, 0x22, 0xbe, 0xf7, 0xde, 0x4e, 0xef, 0xb9, 0x97, 0x50, 0x22, 0xa5, 0xd7, 0x81, 0xe5, 0xd2, 0x10, 0xe2, 0xb7, 0x6d, 0xbb, 0x81, 0xf4, 0x11, 0x90, 0x81, 0x85, 0xcf, 0x33, 0xe2, };
const int32_t bias9[48] = {23700, 12243, -13372, 21286, -3099, 24204, 17125, -9049, 13088, 23119, -9101, -6440, 817, -11249, -8828, 23451, 2747, -38849, 31080, -19459, -19543, -50375, -36802, 17361, 30621, 4845, 35494, 7580, 31127, 8183, 17751, -10396, 37616, 16618, 37085, -16864, 24572, -34902, -1495, 32892, -1715, -3048, 49380, -51088, -28750, -36351, -27277, 9753, };
const float scales9[48] = {0.001978060837691527, 0.001974750790969825, 0.0016106281907674888, 0.002037226984323138, 0.001965259790304908, 0.001518608822060913, 0.0017715770954864155, 0.00197590355398384, 0.001967286467115521, 0.0019369222842354635, 0.0020234364325438466, 0.002023455814048626, 0.002081118584498676, 0.002081955830583529, 0.0020217404635715463, 0.002019072451021691, 0.0017903860601384417, 0.0019005583906731036, 0.0017895142416396571, 0.0020707487810089275, 0.002016505711199514, 0.0011960201754729616, 0.0020203917902119205, 0.001888741085610168, 0.0018732863435420894, 0.0018043959197556005, 0.0018406431750729799, 0.0018283807938327158, 0.0017664862202309455, 0.0020425167382627884, 0.002040231815996597, 0.001944245175487321, 0.0018366552995084417, 0.0020462210501898293, 0.001896464527960806, 0.0018343936001263554, 0.0019118001872697875, 0.0017949824451098022, 0.001897551289093679, 0.002087319443771124, 0.0018350588571823076, 0.002053267885954689, 0.0015355149070815045, 0.0012472308255210313, 0.0019366484986544311, 0.0020794814584733194, 0.0020284213206515573, 0.0020223285438246822, };
const int32_t shift9[48] = {-8, -8, -9, -8, -8, -9, -9, -8, -8, -9, -8, -8, -8, -8, -8, -8, -9, -9, -9, -8, -8, -9, -8, -9, -9, -9, -9, -9, -9, -8, -8, -9, -9, -8, -9, -9, -9, -9, -9, -8, -9, -8, -9, -9, -9, -8, -8, -8, };
const int32_t multiplier9[48] = {1087450446, 1085630728, 1770904424, 1119977379, 1080412996, 1669728058, 1947869616, 1086264466, 1081527173, 2129668574, 1112395943, 1112406598, 1144107041, 1144567322, 1111463574, 1109996819, 1968550291, 2089686050, 1967591717, 1138406181, 1108585738, 1315038090, 1110722133, 2076692785, 2059700117, 1983954295, 2023808574, 2010325943, 1942272139, 1122885452, 1121629303, 2137720178, 2019423858, 1124921919, 2085184800, 2016937093, 2102046536, 1973604070, 2086379707, 1147516000, 2017668551, 1128795958, 1688316495, 1371344795, 2129367543, 1143207022, 1115136414, 1111786875, };
const unsigned char CHWweight10[432] = {0x2f, 0x73, 0x1a, 0x91, 0x7a, 0x18, 0x7f, 0x14, 0xdb, 0xf8, 0xaa, 0xd6, 0x85, 0xa2, 0x06, 0x7f, 0x0c, 0xd8, 0x81, 0xf0, 0xfb, 0x46, 0x4d, 0x40, 0x26, 0x9e, 0xe5, 0xe5, 0x38, 0xf2, 0x77, 0x43, 0xd7, 0x7f, 0x5c, 0xee, 0x8c, 0xed, 0x84, 0x93, 0xd4, 0xfa, 0xde, 0x95, 0x81, 0x9e, 0x9e, 0xa2, 0x7f, 0x63, 0xae, 0xb6, 0xa7, 0x55, 0x7f, 0xbb, 0x33, 0x33, 0xaf, 0x82, 0x58, 0x15, 0x55, 0x65, 0xd0, 0xc6, 0x65, 0x9a, 0x96, 0x7f, 0x02, 0xaa, 0xf6, 0x96, 0x81, 0xd0, 0xf0, 0x9c, 0xd4, 0xb5, 0x51, 0x14, 0x8c, 0x7f, 0x29, 0x5e, 0x58, 0x21, 0xea, 0xdf, 0x1d, 0x1d, 0x5b, 0xdb, 0x8a, 0x81, 0x87, 0x33, 0x11, 0x7f, 0xf3, 0x7b, 0xec, 0xae, 0x69, 0xef, 0x8f, 0x5a, 0xc8, 0xc8, 0x7f, 0x4c, 0xc5, 0xbf, 0x8c, 0xc1, 0x73, 0x7f, 0x6d, 0xbe, 0xbe, 0x74, 0x34, 0xee, 0xdf, 0xe7, 0x78, 0x4b, 0x70, 0xf8, 0x58, 0xf2, 0x05, 0x7f, 0x13, 0xf8, 0xb9, 0x5e, 0x7f, 0x5e, 0xc0, 0x4e, 0xea, 0xd0, 0x4b, 0xf3, 0x45, 0x89, 0x81, 0x1f, 0x15, 0x2e, 0x4a, 0x0e, 0x64, 0x7f, 0xbf, 0xd8, 0x05, 0x74, 0xcf, 0x63, 0x09, 0xb0, 0xd6, 0x68, 0x7f, 0x8d, 0x02, 0x72, 0x7a, 0x16, 0xb7, 0x79, 0x5d, 0x81, 0x9a, 0x7f, 0x54, 0xf3, 0x26, 0x4a, 0x7f, 0x6e, 0x18, 0x81, 0x85, 0x4f, 0x88, 0x1b, 0x15, 0x1b, 0x14, 0xde, 0x81, 0x9a, 0x8a, 0x5d, 0x59, 0xc8, 0xc1, 0x12, 0x1f, 0x81, 0x1e, 0x41, 0xb8, 0xd0, 0xe9, 0x3e, 0x59, 0x3d, 0x5a, 0xa3, 0xbb, 0x7f, 0x35, 0xa2, 0x73, 0xf9, 0x7f, 0x19, 0x77, 0x58, 0x43, 0xb4, 0xde, 0x24, 0x7f, 0x7a, 0xf3, 0x65, 0x0f, 0xa8, 0x97, 0x51, 0x6a, 0xf4, 0xa7, 0x7f, 0xbc, 0x7c, 0x7d, 0xbc, 0x8e, 0x86, 0xeb, 0xc0, 0xea, 0x81, 0x87, 0x45, 0x03, 0xeb, 0xf4, 0x50, 0x5c, 0x5e, 0x03, 0x62, 0x81, 0x95, 0x89, 0xd3, 0xcf, 0xd7, 0xb6, 0x7f, 0x1a, 0xef, 0x28, 0x30, 0x29, 0x9f, 0x04, 0xf5, 0x61, 0x67, 0x81, 0x60, 0x3a, 0x2e, 0x50, 0xac, 0x18, 0x7d, 0x07, 0x7f, 0x90, 0xb7, 0x7f, 0xbc, 0x98, 0x34, 0x12, 0xc8, 0x37, 0x81, 0x76, 0x21, 0x6c, 0xa1, 0xa4, 0x50, 0xed, 0x83, 0x0f, 0x45, 0x1a, 0xd5, 0x54, 0x7f, 0xba, 0x06, 0x70, 0xe7, 0x7f, 0xb7, 0x89, 0x87, 0x30, 0x22, 0x61, 0x55, 0xa8, 0x16, 0xe7, 0x9d, 0x05, 0xf9, 0xbc, 0xb4, 0x7f, 0xf3, 0x2c, 0xda, 0x9e, 0xb7, 0x41, 0x7f, 0x07, 0x07, 0x41, 0xae, 0x0f, 0xc7, 0x81, 0x15, 0x64, 0x75, 0xd0, 0x6e, 0x5b, 0xe0, 0x7f, 0x2c, 0xde, 0x37, 0xe5, 0xec, 0xe0, 0x91, 0x7f, 0xc3, 0xf8, 0xcd, 0x36, 0x22, 0x63, 0xf7, 0x14, 0x28, 0xfd, 0x81, 0x63, 0xdc, 0x99, 0x54, 0xca, 0xeb, 0xed, 0x52, 0x23, 0x5e, 0xd0, 0x86, 0x81, 0x81, 0x38, 0xc5, 0xec, 0x2d, 0xc8, 0x91, 0x08, 0x9e, 0xfe, 0xc4, 0xaf, 0x7f, 0x85, 0xa2, 0x13, 0x72, 0xf7, 0xf2, 0x81, 0x56, 0xdc, 0x7f, 0xa1, 0xf5, 0x31, 0xa7, 0x81, 0xfb, 0xdb, 0x8a, 0x4b, 0x18, 0x60, 0x04, 0x31, 0xa4, 0x70, 0x7a, 0xb2, 0x14, 0x4e, 0xd9, 0x7f, 0x58, };
const int32_t offsetBias10[48] = {12323, 8889, 9029, 4914, 24956, -12951, -9539, -4667, -5845, 27656, -23781, -2174, -8323, 2554, 46712, -19242, 18113, 26536, 11102, 17923, -265, -11021, -14271, -24410, -25722, 23118, -16809, 39731, 9032, 11382, -20341, 33989, 7023, 23286, -14952, -16682, 30348, -9290, 15839, 24848, 21362, -24674, -28877, 22312, -24053, -19540, -21623, 2868, };
const int32_t offsetRBias10[48] = {0, 0, 0, 0, 0, 0, 0, 0, 0, 0, 0, 0, 0, 0, 0, 0, 0, 0, 0, 0, 0, 0, 0, 0, 0, 0, 0, 0, 0, 0, 0, 0, 0, 0, 0, 0, 0, 0, 0, 0, 0, 0, 0, 0, 0, 0, 0, 0, };
const float scales10[48] = {0.0020588346127081106, 0.0024163769542915876, 0.0022159654283974944, 0.0018895647874268794, 0.0022599579435109963, 0.002620354816178343, 0.0024628140876554656, 0.002216766385809774, 0.002014695161061084, 0.002373806869729752, 0.0025213000167683764, 0.0026181344943057867, 0.002483702189028001, 0.0023317551904659707, 0.0016564820530228, 0.002637828942714969, 0.0025859037416165994, 0.0021679327482450206, 0.0023440351223351545, 0.002182835603371555, 0.002440798372211049, 0.0025631972121967508, 0.0024245855885015343, 0.002088541500477155, 0.002413543649994263, 0.0024583187259717056, 0.0024296241200676503, 0.0016372018807310116, 0.002261003952381273, 0.0026132478521900563, 0.0020045235208021378, 0.0020092585093206667, 0.0025020796332586885, 0.0022685017250951623, 0.0026474239219394565, 0.0021846002568929558, 0.0020252198735362208, 0.0022399531123118966, 0.0026349201653988194, 0.0025665170816123128, 0.0025018576954127063, 0.002631545106338242, 0.0024714583426959425, 0.00260085258811398, 0.0019579673995070183, 0.002450328020103616, 0.0024441731954184427, 0.0025113359273111987, };
const int32_t shift10[48] = {-8, -8, -8, -9, -8, -8, -8, -8, -8, -8, -8, -8, -8, -8, -9, -8, -8, -8, -8, -8, -8, -8, -8, -8, -8, -8, -8, -9, -8, -8, -8, -8, -8, -8, -8, -8, -8, -8, -8, -8, -8, -8, -8, -8, -8, -8, -8, -8, };
const int32_t multiplier10[48] = {1131856298, 1328417279, 1218239878, 2077598455, 1242425019, 1440555295, 1353946363, 1218680209, 1107590378, 1305014128, 1386099343, 1439334660, 1365429718, 1281895973, 1821321279, 1450161797, 1421615616, 1191833632, 1288646936, 1200026564, 1341843096, 1409132570, 1332930024, 1148187832, 1326859654, 1351475012, 1335699986, 1800122505, 1243000068, 1436648200, 1101998460, 1104601547, 1375532825, 1247122012, 1455436693, 1200996692, 1113376400, 1231427246, 1448562680, 1410957687, 1375410814, 1446707222, 1358698593, 1429833831, 1076403961, 1347082075, 1343698424, 1380621527, };
const unsigned char weight11[768] = {0xbb, 0x6c, 0x1c, 0x92, 0x10, 0x54, 0x67, 0xbf, 0xdc, 0x3d, 0x1f, 0xcf, 0x3d, 0xda, 0xe7, 0x42, 0x41, 0x4a, 0x3e, 0x08, 0x1d, 0x01, 0x8f, 0x2e, 0xae, 0xcb, 0x37, 0x8d, 0xd6, 0x81, 0x35, 0x0f, 0xe4, 0x9d, 0x98, 0xff, 0xc4, 0x66, 0x5b, 0xc9, 0x72, 0x70, 0x0a, 0xb4, 0xdf, 0x6a, 0x06, 0xb2, 0x64, 0x7b, 0xb4, 0x6e, 0xc0, 0x4e, 0x33, 0xb8, 0x04, 0x54, 0xbb, 0x3a, 0xcb, 0x8e, 0x5b, 0x3c, 0x9a, 0x8c, 0x32, 0xb0, 0xd5, 0xe4, 0x29, 0x7e, 0x1e, 0x68, 0x1f, 0xe6, 0x3a, 0x0e, 0x7f, 0xe6, 0x66, 0xd3, 0x67, 0x76, 0xb3, 0x5f, 0xbd, 0xd4, 0x3d, 0x0c, 0xf6, 0x6e, 0xb4, 0x29, 0xc5, 0x8d, 0x7c, 0x1a, 0x4b, 0xfb, 0xd4, 0xb7, 0x3f, 0xd7, 0x4b, 0xf6, 0x21, 0x08, 0x0d, 0x8b, 0xe0, 0x8a, 0x24, 0x24, 0xbc, 0x05, 0x79, 0xe4, 0x27, 0xd0, 0xde, 0x1b, 0xb7, 0x1f, 0x47, 0xcd, 0xc0, 0x1f, 0xf1, 0x81, 0xc8, 0x2d, 0xbb, 0xcc, 0x49, 0x57, 0x39, 0xf6, 0x3f, 0xe5, 0x54, 0x47, 0x7f, 0x11, 0xe7, 0x3b, 0x5d, 0xb5, 0xf1, 0x1e, 0x93, 0x30, 0x1e, 0x8f, 0xb4, 0xe4, 0x8a, 0xa9, 0xbc, 0x23, 0x33, 0x60, 0xe8, 0x32, 0xcb, 0x25, 0x4c, 0x7f, 0xb4, 0xf4, 0x67, 0x8b, 0xb3, 0xd1, 0xc1, 0x81, 0xdc, 0xef, 0xce, 0xa6, 0x77, 0x7c, 0xe3, 0x37, 0x42, 0x0b, 0xeb, 0xc4, 0xd1, 0x19, 0xb5, 0x73, 0x10, 0x76, 0xcd, 0x29, 0x7c, 0x2e, 0x2d, 0x08, 0xbc, 0x42, 0xb5, 0x6d, 0x67, 0x75, 0x9a, 0x8b, 0x46, 0x4d, 0x08, 0x81, 0x36, 0xb9, 0x11, 0x84, 0xc7, 0x7f, 0xfb, 0xb1, 0xf8, 0x22, 0xb1, 0x9d, 0x66, 0xd3, 0xff, 0x4a, 0x59, 0x94, 0x94, 0x05, 0x2f, 0xae, 0x69, 0xa0, 0x87, 0x09, 0x4c, 0xe8, 0xa8, 0x9d, 0xde, 0x04, 0xcd, 0x6d, 0x59, 0xc5, 0x6c, 0x22, 0x27, 0xe2, 0x88, 0x08, 0x91, 0x9c, 0x12, 0x17, 0x8a, 0x9b, 0x11, 0x63, 0x5c, 0xd9, 0x33, 0x0b, 0xd5, 0xfc, 0x0d, 0xe6, 0xa3, 0xdd, 0x92, 0x48, 0x9b, 0x31, 0xdd, 0x86, 0x63, 0xdb, 0x6d, 0xb0, 0xef, 0xee, 0x0f, 0x7f, 0x95, 0x9e, 0x14, 0x2b, 0x50, 0x16, 0x17, 0x7e, 0xc4, 0x8f, 0xae, 0x45, 0x9d, 0xc0, 0x59, 0xb6, 0x6f, 0x9b, 0x73, 0xd0, 0x54, 0x4c, 0x5b, 0xff, 0x7f, 0xf5, 0xf4, 0xe6, 0x83, 0x07, 0xb5, 0x79, 0x02, 0xab, 0x51, 0x67, 0x33, 0x9d, 0xba, 0x24, 0x50, 0x75, 0xf5, 0x79, 0xdb, 0x3a, 0xb5, 0xd8, 0x91, 0x26, 0x78, 0x24, 0x1f, 0x46, 0x12, 0xf8, 0xd0, 0x02, 0x5c, 0x71, 0x25, 0x22, 0xef, 0x09, 0xd6, 0x6e, 0x4b, 0x92, 0x10, 0x28, 0x51, 0x76, 0x07, 0x32, 0xd3, 0x78, 0x00, 0x07, 0x91, 0x61, 0x77, 0x46, 0x62, 0xa8, 0x7c, 0x8a, 0xf3, 0x75, 0xc1, 0xf0, 0xab, 0x42, 0x8c, 0xa7, 0xa8, 0x7d, 0x81, 0xd6, 0x5d, 0x50, 0x62, 0x5f, 0xb7, 0x8b, 0x44, 0xb2, 0x62, 0x00, 0xb4, 0xb7, 0x3d, 0xa3, 0x33, 0x7f, 0x18, 0xf8, 0x1c, 0xf2, 0x84, 0x0c, 0xd7, 0x04, 0xde, 0xa1, 0x28, 0x0f, 0xb0, 0x92, 0xcc, 0xbf, 0xd1, 0x01, 0x9b, 0xb9, 0xa5, 0xe4, 0x23, 0x0d, 0x7d, 0x10, 0xa9, 0x18, 0x50, 0x36, 0x0e, 0x03, 0x1a, 0xc5, 0x62, 0x3f, 0x01, 0x0d, 0x1f, 0xa3, 0x86, 0xf0, 0x4b, 0x34, 0xb9, 0xb4, 0xaf, 0x7d, 0x71, 0xde, 0xc1, 0xe2, 0x98, 0xcc, 0xb6, 0x44, 0x52, 0x3f, 0xb3, 0xcd, 0x23, 0x07, 0x8b, 0x57, 0xad, 0xe2, 0x48, 0xa0, 0x2a, 0x81, 0x11, 0x70, 0xfc, 0xdc, 0xa7, 0x27, 0x63, 0x9e, 0xb6, 0x81, 0x8e, 0x25, 0x6d, 0xfa, 0x82, 0xce, 0xbc, 0x00, 0xd5, 0xca, 0x32, 0x8a, 0x4b, 0x53, 0x74, 0xab, 0x88, 0x9c, 0x44, 0x30, 0x6e, 0x43, 0x27, 0x4e, 0x5e, 0x5a, 0x88, 0x57, 0xf3, 0x8b, 0x7b, 0xbb, 0xd8, 0x7f, 0x11, 0xa4, 0xad, 0x3a, 0xd1, 0x15, 0xa3, 0xfd, 0xf1, 0xcf, 0x0a, 0x4a, 0x8c, 0x2c, 0x56, 0x01, 0x10, 0x74, 0x32, 0x1c, 0xb3, 0xf8, 0xba, 0x01, 0x2f, 0x7f, 0x96, 0x7f, 0x14, 0x4a, 0x5e, 0xc7, 0x75, 0xd8, 0x7a, 0xd6, 0x23, 0x21, 0x4f, 0xa2, 0x94, 0xd6, 0x83, 0xca, 0x68, 0x83, 0xd9, 0x9c, 0xdb, 0xe9, 0x82, 0x60, 0xef, 0xa4, 0x33, 0xba, 0x6d, 0x1f, 0xb4, 0x65, 0x42, 0xaf, 0x93, 0xda, 0x7c, 0xa8, 0x3c, 0xf8, 0x14, 0xc2, 0x7f, 0xd8, 0xd4, 0x56, 0xcc, 0x82, 0xbf, 0x51, 0xc3, 0x0a, 0x83, 0xd6, 0x5a, 0xcf, 0xe9, 0xae, 0xfc, 0x43, 0x05, 0x8e, 0x42, 0x65, 0xb4, 0xc2, 0xb6, 0xb8, 0xc2, 0xdc, 0xdb, 0x3d, 0xa8, 0xed, 0x99, 0xa4, 0x25, 0x9b, 0xdd, 0xca, 0x43, 0xdd, 0x84, 0x52, 0x19, 0x75, 0xb6, 0xdf, 0x81, 0x81, 0x61, 0x20, 0xcf, 0xa5, 0x0b, 0x2c, 0x92, 0x94, 0x04, 0xfc, 0x68, 0x2f, 0xaf, 0x34, 0x56, 0x57, 0x52, 0xe5, 0xa3, 0xd6, 0xcb, 0x1e, 0x6c, 0xb4, 0x07, 0xf2, 0xf8, 0xcf, 0xa0, 0x93, 0x9e, 0xb3, 0xbf, 0x38, 0x73, 0x51, 0xcd, 0xe9, 0x8b, 0xb7, 0x7b, 0x03, 0x68, 0x73, 0xf4, 0x30, 0x2d, 0x5c, 0x5d, 0x0e, 0x5b, 0x1f, 0x87, 0x4b, 0xb2, 0x4c, 0x8c, 0xfe, 0x56, 0x0a, 0x5e, 0xbf, 0x42, 0x9f, 0x6b, 0x8e, 0x67, 0x68, 0x85, 0x1c, 0x8d, 0x73, 0xc5, 0xcd, 0x52, 0x64, 0x91, 0xfc, 0x9d, 0x18, 0x45, 0xab, 0x7f, 0x5e, 0x2c, 0x12, 0x8d, 0xc2, 0x85, 0x77, 0x14, 0x8f, 0xd6, 0x7f, 0xe6, 0xd7, 0x55, 0x93, 0x6d, 0xb1, 0x0b, 0x0d, 0xce, 0xf5, 0x96, 0x4a, 0x1a, 0x15, 0x81, 0xab, 0xc6, 0x1b, 0xf3, 0x32, 0x97, 0x1e, 0x33, 0xd4, 0x77, 0xd9, 0xd2, 0x40, 0x0d, 0x9a, 0x29, 0xba, 0x81, 0x3c, 0x8a, 0x6b, 0x41, 0xfd, 0x92, 0x29, 0x43, 0xd2, };
const int32_t bias11[16] = {-8960, -8798, 9391, 13545, 17750, -902, -27107, -21453, -5338, -26638, 10979, -25969, -24864, -22521, 13990, -25141, };
const float scales11[16] = {0.0019642164185625617, 0.002081901019581261, 0.0020594543619452572, 0.00196030136344486, 0.0020281006122886353, 0.0020489687357576904, 0.0020616034146153962, 0.001984238159042602, 0.0020188563762872772, 0.0020660751096050357, 0.002083229311350852, 0.002084351985860498, 0.0020700661769185217, 0.0020498866470770078, 0.002073802304451765, 0.0020504283407306732, };
const int32_t shift11[16] = {-8, -8, -8, -8, -8, -8, -8, -8, -8, -8, -8, -8, -8, -8, -8, -8, };
const int32_t multiplier11[16] = {1079839396, 1144537189, 1132197009, 1077687072, 1114960103, 1126432475, 1133378463, 1090846464, 1109878030, 1135836803, 1145267426, 1145884622, 1138030916, 1126937102, 1140084874, 1127234901, };
const unsigned char weight12[1536] = {0x85, 0x42, 0xbf, 0x7a, 0xa5, 0xa7, 0x2a, 0x36, 0x7f, 0x16, 0x8d, 0xa8, 0x2d, 0x0c, 0x79, 0x38, 0x51, 0xb8, 0xf6, 0xf1, 0x49, 0x7f, 0x72, 0x93, 0xa7, 0xc3, 0xfb, 0x45, 0x8a, 0x11, 0x96, 0x36, 0x26, 0x6f, 0xae, 0xfa, 0xa9, 0x27, 0x7f, 0x05, 0xea, 0xb2, 0x48, 0x90, 0x5a, 0xba, 0xd0, 0x15, 0xd6, 0x7f, 0xd9, 0x5d, 0x04, 0xdc, 0xe1, 0x03, 0x0e, 0x39, 0xff, 0x55, 0xbd, 0xcd, 0x30, 0xcb, 0xb2, 0x20, 0xaa, 0x18, 0x92, 0xb4, 0xad, 0xf5, 0xbd, 0xf2, 0xfe, 0x32, 0x7f, 0x9e, 0x05, 0x96, 0x59, 0x6a, 0x11, 0xe8, 0x1b, 0x7f, 0xad, 0xfc, 0x54, 0x50, 0x96, 0xce, 0x77, 0x85, 0xa7, 0x0d, 0x93, 0x3f, 0x89, 0x36, 0x7d, 0x99, 0x25, 0x2f, 0x0a, 0x0c, 0x81, 0x5a, 0xfd, 0x95, 0x7e, 0xc7, 0x34, 0xac, 0x52, 0xff, 0x3a, 0x6f, 0x64, 0x54, 0x79, 0xfc, 0xc2, 0xc3, 0x58, 0x73, 0x34, 0x81, 0x9c, 0xff, 0x06, 0x96, 0xd4, 0x59, 0x14, 0xeb, 0xa0, 0x81, 0xdc, 0x8d, 0x29, 0x7c, 0x4a, 0x73, 0xbc, 0x81, 0x7b, 0xac, 0x86, 0xd2, 0x93, 0x49, 0xcd, 0x7d, 0x6a, 0x4f, 0xc5, 0x03, 0x97, 0x70, 0x09, 0x7b, 0x92, 0x6d, 0xf8, 0x81, 0xc2, 0x6d, 0x92, 0xaf, 0xbc, 0x4d, 0x08, 0x72, 0x3e, 0x1f, 0x97, 0x46, 0xae, 0x30, 0x52, 0x81, 0x4e, 0x0e, 0xbe, 0x24, 0xc3, 0xc9, 0x7e, 0x64, 0x2c, 0x3a, 0xf9, 0x23, 0x0f, 0xe6, 0xd0, 0xd0, 0x8a, 0x6c, 0xef, 0x3b, 0x08, 0x6d, 0x7f, 0xeb, 0x4f, 0x69, 0x2f, 0x14, 0x9f, 0x6a, 0x7f, 0x5c, 0x81, 0x38, 0x85, 0xf0, 0x89, 0x4e, 0x3a, 0x29, 0x5d, 0x55, 0x38, 0xe6, 0x58, 0x39, 0x4c, 0x0b, 0x0d, 0x05, 0x81, 0xc9, 0x04, 0x32, 0x4b, 0x7a, 0x69, 0xdd, 0x81, 0x09, 0xeb, 0x7a, 0x1b, 0x82, 0xea, 0x79, 0x48, 0x83, 0x1a, 0x50, 0xab, 0xb0, 0x52, 0xd7, 0x81, 0xf2, 0x04, 0x8f, 0xa7, 0x97, 0x81, 0xff, 0x25, 0x59, 0x71, 0x38, 0x3c, 0xdb, 0x01, 0xd8, 0xc7, 0xb5, 0x2c, 0x97, 0x4d, 0x57, 0x7f, 0x49, 0x86, 0xe6, 0x4a, 0x0f, 0x20, 0xdb, 0x86, 0x95, 0x9e, 0xcc, 0xef, 0xce, 0x79, 0x59, 0x3f, 0x7c, 0xa2, 0xff, 0x65, 0x81, 0xf9, 0x1f, 0x37, 0x23, 0x57, 0xba, 0xaf, 0x64, 0x54, 0x76, 0x27, 0x47, 0x33, 0x65, 0x4e, 0xe9, 0x7f, 0x00, 0x6b, 0xe2, 0x8b, 0x6a, 0xbd, 0x31, 0x63, 0xc5, 0xf0, 0xf1, 0x32, 0x5d, 0x7f, 0xb1, 0xcf, 0x31, 0x7d, 0x32, 0x7d, 0xd1, 0x19, 0xb3, 0x0b, 0xdb, 0x8e, 0x2a, 0xe2, 0xe3, 0xf3, 0x81, 0x48, 0x8c, 0x79, 0x17, 0x3f, 0x7f, 0x03, 0x3d, 0x75, 0xe3, 0xb2, 0x5a, 0xed, 0x1f, 0xfb, 0x62, 0x63, 0xcb, 0xc8, 0xdf, 0xb6, 0x1b, 0xa2, 0x87, 0x72, 0xa0, 0x65, 0xcb, 0x5d, 0x7d, 0x81, 0x2d, 0x60, 0x5d, 0xd1, 0x16, 0x6c, 0x0f, 0x5a, 0x3c, 0xe6, 0x96, 0x85, 0x14, 0x59, 0x7f, 0x23, 0x50, 0xcc, 0x91, 0xfd, 0xd0, 0x6a, 0x6a, 0x93, 0x79, 0x54, 0x2f, 0xe7, 0x16, 0x7f, 0x9b, 0x89, 0x8f, 0xff, 0xcd, 0x4b, 0xa3, 0xc7, 0x7f, 0x3f, 0x3d, 0x31, 0x3d, 0x9c, 0x35, 0x96, 0x1f, 0x8e, 0x7d, 0x88, 0x0e, 0xa0, 0xeb, 0x5d, 0xf8, 0x37, 0x87, 0xed, 0x52, 0x0d, 0xdb, 0x9b, 0x81, 0x44, 0x4c, 0x00, 0xc9, 0x24, 0x87, 0x92, 0x6c, 0x70, 0x43, 0x7f, 0xa9, 0x92, 0x66, 0xc8, 0x52, 0x6c, 0xfa, 0x6e, 0x94, 0x5f, 0x21, 0x2c, 0x47, 0x61, 0x79, 0x44, 0x35, 0x55, 0xe3, 0xeb, 0xbf, 0x7f, 0x3d, 0x11, 0xaf, 0x1c, 0x9f, 0xec, 0xac, 0x81, 0xad, 0x1a, 0xbf, 0x3a, 0xff, 0x29, 0x58, 0x1b, 0xb4, 0x06, 0x5e, 0xfa, 0xe2, 0x24, 0x92, 0xa6, 0x3e, 0xf9, 0x7f, 0x90, 0x2f, 0x89, 0xbe, 0x89, 0x16, 0xa8, 0xb8, 0xb7, 0xa1, 0x33, 0xb6, 0x50, 0x8a, 0x7f, 0xfa, 0xc2, 0x4d, 0x87, 0x51, 0xaa, 0xa0, 0x49, 0x0e, 0x8e, 0xa5, 0x69, 0x7f, 0x0b, 0x60, 0xdc, 0xb7, 0x2b, 0xfa, 0xe0, 0x66, 0xb7, 0xf4, 0xaa, 0xf8, 0x07, 0xda, 0xc7, 0xd2, 0xb5, 0xec, 0x70, 0x36, 0xe0, 0xe6, 0x85, 0xb3, 0x0c, 0x54, 0xcc, 0x33, 0xbb, 0x7f, 0xa5, 0x1f, 0x30, 0x03, 0xf1, 0xc0, 0xdf, 0xc9, 0xc8, 0xac, 0xd2, 0x7f, 0x82, 0x28, 0xce, 0xb5, 0x3e, 0xc9, 0xe6, 0x23, 0xba, 0xf2, 0xfb, 0x17, 0xa6, 0x94, 0x20, 0x06, 0x2f, 0xb7, 0x83, 0x81, 0x26, 0xf0, 0xbd, 0x11, 0x87, 0xdf, 0x53, 0xee, 0x40, 0x08, 0xcd, 0x59, 0x93, 0xba, 0x7f, 0xbb, 0x5d, 0x99, 0xb7, 0x4f, 0x7f, 0x29, 0xbf, 0xf5, 0x3d, 0x6f, 0x1c, 0x41, 0x6c, 0x57, 0x13, 0xa4, 0x7f, 0xd2, 0x60, 0x34, 0x37, 0x6a, 0xb9, 0x37, 0x79, 0xcf, 0x07, 0xf0, 0x3b, 0x07, 0xcf, 0x1d, 0x8a, 0x7f, 0x76, 0x51, 0x2d, 0x5c, 0x04, 0x24, 0xbb, 0x68, 0x94, 0x5a, 0xe5, 0xd4, 0xcd, 0x63, 0x32, 0x8b, 0x7f, 0x90, 0xc7, 0xc8, 0x51, 0xd4, 0xc7, 0x1f, 0x6c, 0xf5, 0xaf, 0xba, 0x4f, 0x7d, 0x69, 0x54, 0x0f, 0xb5, 0xc2, 0x23, 0x10, 0xd9, 0x08, 0xe4, 0x1c, 0x13, 0xe7, 0x57, 0x8b, 0x81, 0x19, 0xf2, 0x05, 0x22, 0xa9, 0x09, 0x6a, 0x13, 0x7f, 0x15, 0xf0, 0x8f, 0x27, 0x56, 0xdf, 0xab, 0x43, 0xef, 0x31, 0xc5, 0xc6, 0xe9, 0x8d, 0xec, 0x76, 0x81, 0x8a, 0x05, 0x60, 0x09, 0xcf, 0x96, 0x2d, 0x4a, 0xeb, 0x02, 0x20, 0x18, 0xbb, 0x2e, 0xbd, 0x76, 0xe5, 0x44, 0x9f, 0x4f, 0x7f, 0xb5, 0xee, 0x10, 0x04, 0x10, 0xdf, 0x66, 0x1e, 0xf1, 0xcf, 0x7f, 0x2c, 0x72, 0xf4, 0x62, 0xe6, 0x89, 0x81, 0xf3, 0xc4, 0xe2, 0x8c, 0x83, 0x81, 0x23, 0x3b, 0x8d, 0x5a, 0xd1, 0xda, 0x87, 0xa5, 0x94, 0x58, 0xe9, 0x7f, 0x12, 0x23, 0x34, 0x8a, 0x35, 0x06, 0x42, 0x25, 0xcc, 0x11, 0x78, 0x8e, 0x7b, 0x96, 0x18, 0x81, 0xbb, 0xd9, 0xfe, 0x2f, 0x1d, 0x89, 0xcc, 0x4b, 0x9a, 0xca, 0x34, 0x36, 0x37, 0x2d, 0xa1, 0x5e, 0x1d, 0x45, 0xc3, 0x74, 0x88, 0xce, 0x47, 0xc5, 0x7f, 0xb0, 0xcd, 0x9e, 0xc7, 0xc5, 0x8c, 0xb4, 0xda, 0x24, 0x6f, 0x73, 0xd6, 0x6d, 0x83, 0x81, 0x05, 0x2f, 0x27, 0x71, 0xcc, 0xfa, 0xcf, 0x43, 0x8a, 0x2f, 0xd2, 0x8b, 0x10, 0x44, 0x87, 0x0a, 0x6f, 0x06, 0x67, 0x81, 0x79, 0x2f, 0x3c, 0x50, 0x84, 0x0f, 0xf5, 0xd4, 0x7f, 0x86, 0xd1, 0x4c, 0x07, 0x3b, 0xaa, 0x6d, 0x68, 0x10, 0xc4, 0xa9, 0x9d, 0x5a, 0x3b, 0x2f, 0xfc, 0x19, 0x21, 0x23, 0x81, 0x47, 0x42, 0x50, 0xec, 0x13, 0x78, 0xfa, 0x3d, 0x74, 0x2b, 0x3a, 0xd7, 0xb2, 0x7f, 0xb8, 0x0c, 0x02, 0xb5, 0x0b, 0x5b, 0xd9, 0xe6, 0x14, 0x0c, 0x1d, 0x72, 0x05, 0xdd, 0x56, 0x03, 0x81, 0x7e, 0xe7, 0x99, 0x61, 0xa8, 0x81, 0xac, 0x8d, 0x0d, 0x63, 0x10, 0x2b, 0xf0, 0x0a, 0xbe, 0x87, 0xef, 0x07, 0x7e, 0x65, 0x1a, 0x28, 0x46, 0xec, 0x26, 0x28, 0x27, 0x81, 0x6a, 0x53, 0x6e, 0x0f, 0x27, 0xfa, 0xeb, 0x4c, 0xe5, 0x3f, 0xe8, 0xee, 0xe6, 0x8b, 0xd0, 0xc8, 0x7f, 0x7b, 0xfc, 0xdd, 0x1c, 0x69, 0xd3, 0xe5, 0x6f, 0xbf, 0x6b, 0xf6, 0xef, 0x9f, 0x87, 0x7f, 0x36, 0xae, 0x22, 0xdf, 0x78, 0x1c, 0xab, 0x8a, 0x02, 0x5f, 0x62, 0xf6, 0x81, 0xb0, 0xe4, 0x7e, 0x00, 0xe4, 0xb2, 0xba, 0x0d, 0x2a, 0xc0, 0xf8, 0x1e, 0xd0, 0xda, 0x72, 0x70, 0xd7, 0xfb, 0xc7, 0x87, 0x81, 0xb9, 0xd8, 0xd3, 0xa9, 0x0a, 0xf9, 0xb4, 0x8a, 0x6d, 0x99, 0x45, 0x91, 0xdc, 0x0c, 0xab, 0xc0, 0x97, 0x81, 0xc3, 0xf6, 0x3b, 0x6c, 0xc3, 0x3b, 0x79, 0x45, 0x52, 0x19, 0x0a, 0xbc, 0xcf, 0xcf, 0x7f, 0xa6, 0x3b, 0xaa, 0x00, 0x5d, 0x26, 0xdd, 0x2e, 0x08, 0xc9, 0x0b, 0xe7, 0x72, 0x05, 0xdd, 0xa5, 0xf4, 0x5a, 0x7f, 0x28, 0x4d, 0x1d, 0x5d, 0x98, 0x10, 0xa7, 0x7f, 0x44, 0x50, 0xeb, 0xef, 0x09, 0xf3, 0xf3, 0x12, 0x4b, 0xd2, 0x05, 0x81, 0x20, 0x3b, 0xd3, 0x20, 0x0d, 0x09, 0x43, 0x5e, 0x54, 0xf1, 0xf1, 0x44, 0x2e, 0xff, 0x77, 0xdc, 0x89, 0x47, 0x0f, 0x0d, 0xc3, 0xa3, 0xc0, 0x4f, 0x6d, 0x1e, 0x42, 0xa2, 0xa6, 0x81, 0xd1, 0x79, 0x32, 0x6f, 0x55, 0x09, 0x7f, 0x55, 0xf7, 0x0a, 0x9e, 0xe3, 0x9c, 0x0c, 0x5a, 0x9d, 0x81, 0x4b, 0x14, 0xfe, 0x2a, 0x7f, 0x1c, 0xf3, 0xc5, 0x4e, 0x65, 0x7a, 0xcf, 0x5c, 0x91, 0x2f, 0x83, 0x7f, 0x97, 0xa7, 0xc9, 0xc1, 0x35, 0xa7, 0x5b, 0xd4, 0xff, 0x11, 0xce, 0x17, 0xf8, 0x74, 0x8d, 0x20, 0x1e, 0xc6, 0x35, 0x96, 0x8a, 0x7a, 0x1d, 0x3e, 0xed, 0x15, 0xf5, 0x2c, 0x81, 0xc5, 0x83, 0x7f, 0x2b, 0xf2, 0x8a, 0xdc, 0x73, 0xd1, 0x40, 0xa0, 0x89, 0xb0, 0xfe, 0xb1, 0xa0, 0xeb, 0xd9, 0xae, 0x1f, 0x7a, 0xa8, 0x44, 0xaf, 0x90, 0x7c, 0x39, 0x69, 0x4f, 0x7b, 0x7a, 0x45, 0x7f, 0xd7, 0x95, 0x3d, 0xa6, 0x02, 0x5b, 0xdf, 0x84, 0x52, 0x40, 0xb2, 0xb8, 0x9c, 0x97, 0xdb, 0x81, 0x60, 0xb3, 0x81, 0xe8, 0xc0, 0x9b, 0xb3, 0x78, 0x99, 0xbf, 0x52, 0x07, 0x5b, 0x04, 0x16, 0x5a, 0x8f, 0x7e, 0x81, 0x66, 0x2b, 0x60, 0x03, 0x7b, 0xa8, 0x30, 0x7c, 0xe8, 0x8f, 0xa8, 0xad, 0x41, 0x72, 0x7f, 0xcb, 0x45, 0x19, 0x63, 0xaf, 0x5f, 0x57, 0x6f, 0xa8, 0x0a, 0xb6, 0x1e, 0xd4, 0x9a, 0x5d, 0xf5, 0x70, 0x7f, 0x87, 0xd1, 0x93, 0x0b, 0x4b, 0xc7, 0x7d, 0x08, 0x8d, 0xe7, 0x94, 0x39, 0xa0, 0x6b, 0x81, 0x93, 0x0d, 0x29, 0x1a, 0xcc, 0x2f, 0x01, 0xfe, 0x26, 0xaf, 0xb8, 0x38, 0x26, 0x88, 0x09, 0xbf, 0xc2, 0x8b, 0xfb, 0x8b, 0x7f, 0xe7, 0x36, 0x40, 0xb8, 0x4e, 0xa5, 0x78, 0xc7, 0x1e, 0xdb, 0x20, 0x95, 0xc3, 0x42, 0xde, 0x0d, 0xcf, 0x81, 0xe3, 0x5a, 0xdd, 0x91, 0x3c, 0x3e, 0xe3, 0xc4, 0x01, 0xcb, 0x03, 0x0d, 0x19, 0x79, 0x15, 0xcd, 0x5c, 0x99, 0xe2, 0x68, 0x24, 0xb9, 0x7f, 0xe9, 0x2e, 0x02, 0x8f, 0x46, 0xd0, 0x2f, 0x4d, 0x48, 0xab, 0xbb, 0xe7, 0x81, 0xcd, 0xd4, 0xe2, 0xc4, 0x90, 0xb6, 0x11, 0xbb, 0xce, 0x8a, 0x31, 0x68, 0x50, 0xc2, 0x77, 0xbe, 0x30, 0x81, 0xbb, 0x28, 0x2c, 0x38, 0xea, 0x77, 0x9f, 0x8d, 0x23, 0x73, 0x31, 0x81, 0x74, 0xe6, 0x5c, 0x03, 0x29, 0x7f, 0x51, 0xb5, 0x9d, 0x78, 0x01, 0x9e, 0xd0, 0x3c, 0xa9, 0xec, 0xbc, 0xba, 0x73, 0xcb, 0xfa, 0x02, 0xd8, 0xb9, 0x1f, 0xb8, 0x7f, 0x85, 0xc5, 0xf3, 0x79, 0x78, 0xa3, 0x64, 0x92, 0x0a, 0x57, 0xe0, 0x4d, 0x01, 0x7f, 0x2b, 0x4a, 0xdb, 0x29, 0x6b, 0x3b, 0x85, 0xef, 0x66, 0x58, 0x88, 0x52, 0x59, 0x47, 0x02, 0x00, 0x34, 0xfa, 0xe7, 0xdc, 0x07, 0x45, 0xa0, 0xf8, 0x81, 0xfb, 0x04, 0x54, 0x81, 0x11, 0x9e, 0xad, 0x17, 0x90, 0xb4, 0x57, 0x94, 0x62, 0x1b, 0xad, 0x21, 0xfd, 0xcc, 0xbd, 0x8e, 0x88, 0xd0, 0xef, 0x02, 0x2a, 0x92, 0xcf, 0xdb, 0x89, 0xef, 0x86, 0xbe, 0x04, 0x81, 0xe4, 0xd0, 0x34, 0x03, 0xee, 0x7c, 0xc5, 0xac, 0x90, 0x8d, 0x55, 0x6d, 0xb9, 0x67, 0x81, 0x1a, 0x23, 0x7f, 0x67, 0x07, 0x22, 0x6a, 0xeb, 0xd2, 0xf2, 0xdc, 0x7c, 0x66, 0xe8, 0xa2, 0xf2, 0x01, 0x58, 0x2d, 0x6a, 0xc8, 0xea, 0x33, 0x22, 0xc8, 0x97, 0xcd, 0x45, 0x7f, 0x87, 0xa2, 0x0c, 0xcb, 0x14, };
const int32_t bias12[96] = {-29199, 46669, 30922, -23326, 6910, -38830, 13984, -39343, 43427, 28724, 5556, -20144, 48559, 24215, -14216, 36940, -44914, -12600, -12285, -11169, -45537, -32518, 579, 15706, -21843, 35220, -47121, 16575, 45529, 45132, -44391, -49129, 26376, 6625, -18723, -59338, 37374, -21813, -29839, -11040, -3803, -44836, -21558, -52515, -24014, -17881, 11983, 28536, 32483, 1234, -5022, 45459, 11155, 9315, 9967, 49375, 8408, -4123, -30602, 22599, 37080, -4726, -19791, -56354, 16673, -47941, -33275, 15931, -50873, 12992, -51025, 20665, 43574, -52489, -42519, 15936, -6221, -29275, -12014, -43589, 35843, 20533, -1578, -37079, -54063, 42871, -28017, -40402, 43621, 27640, -42724, -2591, -37589, -4930, -42642, -12295, };
const float scales12[96] = {0.0016541959080460722, 0.0015968108212413333, 0.0017899599334558968, 0.0016262744667169373, 0.001790004785981728, 0.0017774483107467368, 0.0016619635790065413, 0.001791098677441098, 0.0015999675037465114, 0.001609613666511577, 0.0017523058128782211, 0.001773549010710795, 0.0013068518897300866, 0.0017674600146152008, 0.0017786956786215102, 0.001394465665804109, 0.0017452783148795721, 0.0017436413039723414, 0.0017103324578343691, 0.0016660780011095026, 0.0017382618705839717, 0.0016446623017380092, 0.001668823570889764, 0.0015989048602553743, 0.0017501408813648213, 0.0017641173322991116, 0.0017053346960579892, 0.001782989510827796, 0.0016348873208181867, 0.0017423436630058188, 0.0016909383106934646, 0.0016855922509854526, 0.001677342999943133, 0.0017936950222302056, 0.0017644982599118576, 0.0015620787045502688, 0.0016588075342150006, 0.0016859449066269402, 0.001624388853776723, 0.0016708485242597523, 0.001699605370453894, 0.0016014941901944702, 0.0017713802529155708, 0.0013688003490385234, 0.001535629318867488, 0.0017420612621500526, 0.0017498698530689222, 0.001641083027662441, 0.0017194686622607196, 0.0017798009426407476, 0.0017726106150933467, 0.0016802780769593112, 0.0017618214569188302, 0.0017606705963745181, 0.0016842009723998371, 0.001730000502982541, 0.0016627064091085174, 0.0017251913981572282, 0.0017495497208229423, 0.0016220296321751257, 0.0017316731195678606, 0.0017671413703677084, 0.0017036833365939167, 0.0016300890571247098, 0.0016728838936191518, 0.0017411144699697116, 0.0017423854332490692, 0.0017670436938955784, 0.0017098503463244873, 0.00174890446090749, 0.0015521220815293906, 0.0017459819255928476, 0.0017873008801591109, 0.0016659698023623554, 0.0015934491138017278, 0.0017961370403190599, 0.0017947119629106616, 0.001540227659335637, 0.0017317102132444367, 0.001791693451693589, 0.001746128706015058, 0.0016153304504141367, 0.001737812388755204, 0.0017651694535152313, 0.00169028210336057, 0.0017580597967429628, 0.0014973277063766288, 0.001723318008061731, 0.001769916062404078, 0.0017178156022269473, 0.0015635561807625408, 0.0014318070941282414, 0.001717824955360296, 0.0017906135899342418, 0.0017337403746091305, 0.0015190513151493849, };
const int32_t shift12[96] = {-9, -9, -9, -9, -9, -9, -9, -9, -9, -9, -9, -9, -9, -9, -9, -9, -9, -9, -9, -9, -9, -9, -9, -9, -9, -9, -9, -9, -9, -9, -9, -9, -9, -9, -9, -9, -9, -9, -9, -9, -9, -9, -9, -9, -9, -9, -9, -9, -9, -9, -9, -9, -9, -9, -9, -9, -9, -9, -9, -9, -9, -9, -9, -9, -9, -9, -9, -9, -9, -9, -9, -9, -9, -9, -9, -9, -9, -9, -9, -9, -9, -9, -9, -9, -9, -9, -9, -9, -9, -9, -9, -9, -9, -9, -9, -9, };
const int32_t multiplier12[96] = {1818807636, 1755712065, 1968081760, 1788107686, 1968131076, 1954325085, 1827348280, 1969333822, 1759182874, 1769788943, 1926680617, 1950037760, 1436898849, 1943342838, 1955696581, 1533231214, 1918953801, 1917153888, 1880530425, 1831872135, 1911239139, 1808325325, 1834890921, 1758014486, 1924300249, 1939667520, 1875035328, 1960417699, 1797577619, 1915727117, 1859206334, 1853328280, 1844258132, 1972188534, 1940086354, 1717523699, 1823878172, 1853716029, 1786034433, 1837117381, 1868735867, 1760861484, 1947653185, 1505011900, 1688442292, 1915416614, 1924002251, 1804389871, 1890575788, 1956911832, 1949005983, 1847485284, 1937143178, 1935877793, 1851798553, 1902155669, 1828165030, 1896868002, 1923650261, 1783440441, 1903994730, 1942992485, 1873219639, 1792301873, 1839355293, 1914375605, 1915773044, 1942885088, 1880000338, 1922940791, 1706576276, 1919727429, 1965158100, 1831753169, 1752015829, 1974873561, 1973306672, 1693498221, 1904035515, 1969987784, 1919888816, 1776074613, 1910744928, 1940824339, 1858484827, 1933007189, 1646329224, 1894808188, 1946043291, 1888758229, 1719148201, 1574288549, 1888768513, 1968800463, 1906267701, 1670214584, };
const unsigned char CHWweight13[864] = {0x09, 0xbc, 0xa5, 0x28, 0x81, 0x5b, 0x6f, 0x2c, 0x36, 0xba, 0xd2, 0x7e, 0x81, 0xd4, 0x2b, 0x8b, 0xd9, 0x78, 0xd8, 0x35, 0x65, 0xef, 0x8e, 0x7f, 0xf6, 0x12, 0x69, 0x93, 0xfb, 0x95, 0x4b, 0xae, 0x98, 0x32, 0x72, 0x81, 0x06, 0x07, 0xab, 0xf2, 0x9d, 0xa8, 0xc8, 0x18, 0x7f, 0xa8, 0x8a, 0x2d, 0x86, 0xaa, 0xac, 0x81, 0xe2, 0x57, 0xf4, 0x0c, 0xb8, 0x8b, 0x13, 0xa2, 0x38, 0xdc, 0x7f, 0x81, 0xe3, 0xdb, 0xcb, 0x41, 0xb6, 0xb9, 0x3e, 0xa7, 0xc3, 0xa7, 0x1e, 0x3b, 0x02, 0x7f, 0x3d, 0xae, 0x9f, 0x6b, 0xc2, 0xde, 0x82, 0x81, 0xbc, 0x0b, 0x3a, 0xf8, 0x95, 0x16, 0xac, 0xad, 0xf1, 0xbc, 0xbb, 0x81, 0x11, 0x17, 0x5b, 0xb4, 0x81, 0xad, 0xa0, 0x45, 0xdf, 0x03, 0x81, 0x55, 0x09, 0x3e, 0xce, 0xf4, 0x9a, 0x40, 0x12, 0x56, 0x81, 0x1d, 0xb9, 0xdc, 0x58, 0x6c, 0xc8, 0x8d, 0x71, 0x54, 0x31, 0x1d, 0x81, 0x66, 0xa1, 0x93, 0x92, 0xdf, 0xc8, 0x55, 0x53, 0x81, 0xa3, 0xa1, 0x26, 0xd8, 0x11, 0x7f, 0x18, 0x82, 0x66, 0x0f, 0x6a, 0xfa, 0x9e, 0x7f, 0xe4, 0xc1, 0x06, 0xff, 0xad, 0x70, 0xd8, 0xbe, 0x1b, 0x02, 0xcc, 0x90, 0x43, 0x09, 0x42, 0x88, 0x81, 0x0d, 0xe6, 0xd5, 0x69, 0x03, 0xf9, 0x81, 0xa6, 0x08, 0xa0, 0xec, 0x7e, 0x54, 0x7f, 0x75, 0xc7, 0xb9, 0xd5, 0x7f, 0xa2, 0x08, 0x3e, 0x4b, 0xfe, 0x15, 0x79, 0xf7, 0x79, 0x6a, 0xce, 0x84, 0x4c, 0x41, 0x7f, 0x65, 0x2a, 0x43, 0x2d, 0x56, 0xe3, 0xb0, 0x7f, 0x4d, 0xb2, 0x5f, 0x08, 0xeb, 0x73, 0x5e, 0x7f, 0x71, 0x94, 0x59, 0x4a, 0x81, 0xbd, 0x8a, 0x21, 0xe9, 0xd0, 0xb0, 0x7b, 0xf3, 0xe7, 0x7f, 0x47, 0x95, 0xb2, 0x62, 0x12, 0x47, 0x8c, 0x92, 0x7f, 0x71, 0xf6, 0xc0, 0xc3, 0x15, 0x49, 0x8a, 0xcd, 0xc8, 0x2e, 0xcf, 0x55, 0x7f, 0x44, 0x05, 0x94, 0x96, 0x7d, 0x2b, 0xe6, 0xad, 0x98, 0x48, 0x81, 0xff, 0xa3, 0xd7, 0x7f, 0x79, 0x11, 0xc9, 0xa6, 0xda, 0xab, 0xa7, 0xb9, 0xab, 0x7c, 0x7f, 0x32, 0x2a, 0x77, 0x57, 0x2d, 0xf1, 0xce, 0x84, 0x2a, 0x81, 0xa5, 0x90, 0x94, 0x17, 0x6b, 0xba, 0xe4, 0x00, 0x7f, 0x38, 0x3e, 0x9a, 0x2c, 0x66, 0xcd, 0x40, 0xf4, 0x04, 0xf6, 0x83, 0x7f, 0x2b, 0xa7, 0x7c, 0x65, 0x8a, 0x2b, 0x7f, 0x49, 0x38, 0x9d, 0x09, 0xae, 0xdc, 0x7c, 0xf2, 0xb9, 0x7f, 0x66, 0x7f, 0xfc, 0x59, 0x06, 0x5c, 0xa1, 0x11, 0x3a, 0x5b, 0x5c, 0x81, 0x06, 0xec, 0x7d, 0xcd, 0x81, 0xac, 0x04, 0xcf, 0x7e, 0x81, 0xdd, 0x5d, 0xd3, 0x17, 0x1a, 0x24, 0x81, 0xbb, 0x0a, 0x18, 0x89, 0x09, 0x52, 0x98, 0x60, 0x1d, 0xe3, 0x4d, 0x28, 0x51, 0x81, 0x4d, 0x78, 0x01, 0x7f, 0xa5, 0x42, 0xaf, 0x47, 0x4e, 0x9b, 0x72, 0x85, 0x00, 0x20, 0xda, 0x20, 0x45, 0x49, 0x2b, 0x7f, 0x67, 0x32, 0x1e, 0x39, 0x20, 0x81, 0xc4, 0x6c, 0x60, 0xd5, 0xcd, 0x81, 0x95, 0xd1, 0x24, 0xdd, 0x51, 0xad, 0xf3, 0xcd, 0x9e, 0x81, 0x98, 0x82, 0x44, 0xe6, 0x55, 0x0d, 0x89, 0x96, 0xa9, 0xe8, 0x81, 0xb8, 0x4f, 0x3c, 0x2d, 0x7f, 0x63, 0x6e, 0xaa, 0xb2, 0x43, 0xbb, 0x41, 0x9e, 0x81, 0x32, 0x5e, 0x6d, 0xee, 0xa1, 0x94, 0xaa, 0xb5, 0x86, 0x62, 0xca, 0x88, 0xce, 0xab, 0xc5, 0x81, 0xa5, 0xa1, 0x15, 0x18, 0xcc, 0x7f, 0x77, 0xd5, 0xc5, 0x2e, 0x98, 0x01, 0xe0, 0x33, 0xb7, 0x42, 0x79, 0x81, 0x96, 0xa0, 0xea, 0x3f, 0x7f, 0x86, 0x2e, 0x1b, 0xfc, 0x53, 0x72, 0xa5, 0x5b, 0x7f, 0xf9, 0x69, 0x4b, 0x46, 0xad, 0xed, 0x7f, 0x5f, 0xeb, 0xcc, 0x27, 0xfa, 0xfb, 0xc6, 0xda, 0xdf, 0x81, 0x48, 0x36, 0xe8, 0xd3, 0xca, 0x43, 0x81, 0x42, 0x41, 0x73, 0x3d, 0x9d, 0x64, 0x30, 0x0c, 0xf4, 0x7f, 0x71, 0x10, 0x83, 0xb5, 0xf5, 0xdb, 0x8d, 0x7b, 0x34, 0x63, 0x31, 0x7f, 0xbb, 0x7b, 0x64, 0x4a, 0x92, 0x81, 0xfc, 0xb1, 0xb0, 0xa8, 0x3f, 0x3f, 0xcd, 0x68, 0x81, 0x51, 0x81, 0x3b, 0xdf, 0xd0, 0x5e, 0x28, 0x7f, 0x68, 0x11, 0x0b, 0x40, 0x64, 0x50, 0xa4, 0x76, 0x81, 0x60, 0x99, 0x29, 0xb7, 0xb6, 0x8a, 0xae, 0x4d, 0x2f, 0x1e, 0xf6, 0xdd, 0x7f, 0x1c, 0x1b, 0xc0, 0x11, 0x7f, 0x0f, 0x49, 0x8c, 0x51, 0xec, 0xa9, 0x37, 0xc2, 0xb3, 0x8c, 0xc9, 0x7f, 0xac, 0xe0, 0xe3, 0xe4, 0xd2, 0xe3, 0xbe, 0x7f, 0xb0, 0x1e, 0x4a, 0x29, 0x0e, 0x04, 0x60, 0x6c, 0x7f, 0xd5, 0xeb, 0x9b, 0xf4, 0x8c, 0x59, 0x81, 0xc7, 0xd7, 0xe2, 0x3a, 0xd4, 0xe2, 0xf4, 0x7a, 0x66, 0xde, 0x97, 0xf9, 0x9a, 0xc1, 0x81, 0xc7, 0xf8, 0x2e, 0xcc, 0x7b, 0x4c, 0x81, 0x33, 0xae, 0xf2, 0x4b, 0xa3, 0x6f, 0x93, 0x8b, 0x84, 0xe1, 0x7f, 0xaf, 0xec, 0x90, 0x7f, 0x03, 0xd4, 0x09, 0xbd, 0xf0, 0xea, 0x84, 0x8b, 0xde, 0x7e, 0xde, 0xeb, 0x7f, 0x98, 0xd4, 0xfb, 0x5d, 0x66, 0x2e, 0x7f, 0xd0, 0xb0, 0x8c, 0x27, 0x25, 0x81, 0x4b, 0x5c, 0xf0, 0xd1, 0x83, 0x37, 0xc1, 0x9d, 0xcf, 0x1f, 0x3f, 0x81, 0x60, 0x59, 0x1a, 0x56, 0x28, 0xa3, 0x5e, 0xd4, 0xf5, 0x9f, 0x7f, 0x22, 0x5f, 0xae, 0x9d, 0xb9, 0x90, 0x4f, 0x28, 0x4c, 0x81, 0xc7, 0x54, 0x16, 0x4a, 0x11, 0x88, 0x59, 0x81, 0xca, 0xea, 0xe3, 0xd8, 0x7e, 0xde, 0x11, 0x81, 0xb3, 0x24, 0xcd, 0x47, 0x4d, 0x47, 0xaf, 0xdc, 0xff, 0xd4, 0x1b, 0x81, 0xf7, 0x76, 0xbd, 0x49, 0x9f, 0xe6, 0x6f, 0x2c, 0x81, 0xcc, 0xdd, 0x23, 0x90, 0xaf, 0xe0, 0xf2, 0x7f, 0x6e, 0x8b, 0xcc, 0xfa, 0xcc, 0x0d, 0xec, 0xb2, 0x5c, 0x69, 0x7f, 0xb0, 0x85, 0xfd, 0x55, 0x81, 0xda, 0x23, 0x04, 0x9a, 0xb3, 0x0e, 0x04, 0x4e, 0x81, 0xa8, 0x12, 0x2e, 0x68, 0x41, 0x37, 0x81, 0xc7, 0x58, 0x60, 0x39, 0xe5, 0x09, 0x05, 0x4e, 0x63, 0x81, 0x97, 0xdb, 0x91, 0xed, 0xbd, 0x5d, 0x74, 0x74, 0x9d, 0xbe, 0x46, 0x18, 0xfb, 0x81, 0x06, 0x05, 0x63, 0x22, 0xf9, 0x4a, 0x7e, 0x7f, 0x9c, 0xd7, 0x81, 0x7e, 0xa2, 0xfc, 0xff, 0x89, 0xfa, 0xd2, 0x81, 0xb3, 0xb5, 0x6a, 0xe1, 0xee, 0xa1, 0x2d, 0xb2, 0x0e, 0x07, 0x0f, 0x7f, 0x50, 0xec, 0x1f, 0x93, 0x51, 0x7c, 0x81, 0x4d, 0x93, 0xa2, 0xe3, 0x4a, 0xc1, 0x8d, };
const int32_t offsetBias13[96] = {-51453, 47026, 45517, -19599, -6189, -43751, 3802, -46394, 43736, 18001, 51373, -36677, -13032, -4384, 94393, -33087, -47246, -27717, -44135, 14945, 21726, 22600, 24689, 23567, 34298, -7132, -13582, -49237, 27252, 27517, -5094, 45272, 37169, -26201, 31165, -25018, 42276, 33182, -25044, -4473, 34343, 15846, 35238, -30436, -13305, -27086, -57446, 5592, -22730, 42765, 21345, 11902, -43214, -5296, 7604, -45123, -64798, -37771, 23561, -27693, 28320, -23775, 28390, 40833, 39271, 22713, 5095, 33154, -10901, -48375, -31947, 21814, -49308, 2448, 33483, 35608, 36165, -20776, -15811, -35436, -42659, -7499, 19258, 14897, -42933, -43860, 38454, 1852, 38761, -4662, -3336, 48398, 37143, -41207, -51104, 23472, };
const int32_t offsetRBias13[96] = {0, 0, 0, 0, 0, 0, 0, 0, 0, 0, 0, 0, 0, 0, 0, 0, 0, 0, 0, 0, 0, 0, 0, 0, 0, 0, 0, 0, 0, 0, 0, 0, 0, 0, 0, 0, 0, 0, 0, 0, 0, 0, 0, 0, 0, 0, 0, 0, 0, 0, 0, 0, 0, 0, 0, 0, 0, 0, 0, 0, 0, 0, 0, 0, 0, 0, 0, 0, 0, 0, 0, 0, 0, 0, 0, 0, 0, 0, 0, 0, 0, 0, 0, 0, 0, 0, 0, 0, 0, 0, 0, 0, 0, 0, 0, 0, };
const float scales13[96] = {0.0011712784113817618, 0.0010848598541145637, 0.0015818350720358614, 0.001740159123993483, 0.001469552337351529, 0.001663860175553562, 0.0016611168470927805, 0.001738555151190003, 0.0017168739969280402, 0.0017066657165755274, 0.001387206717579576, 0.0017181631742208315, 0.0016704074892547542, 0.001693982982709722, 0.0008359957583815535, 0.0016372353711645055, 0.0017205615573061973, 0.0017320978232389192, 0.0014192529314906322, 0.0017398202085910125, 0.0016867174837692622, 0.0016417113118516024, 0.0015898136539307893, 0.001519420677454174, 0.0016796115471898192, 0.001725315185978165, 0.001607282794783035, 0.0015363774252207503, 0.0015824649722866208, 0.0015339473461237485, 0.00157692760174644, 0.001455027678672936, 0.0016674603786313558, 0.0016955203165814209, 0.0013614142040716776, 0.001547293995472313, 0.0015109569146591765, 0.0014864950151812326, 0.001672297808465796, 0.0016069737200159098, 0.0016788109523202973, 0.0016504340542538708, 0.0014831335371862009, 0.0017090687381016202, 0.0017362223247335824, 0.0016285016511191825, 0.0012605503827696678, 0.0015347929338683246, 0.0017011257175856011, 0.0013491144507952514, 0.0016395552099868899, 0.001421049090354911, 0.001690010003612149, 0.000730648884116665, 0.0016487207688639187, 0.0017098163001321607, 0.001261556692485443, 0.0016040185694285844, 0.0015119220195598246, 0.0016967833639914486, 0.0017000766569077901, 0.0014347890794771455, 0.0016830452302455052, 0.0015940528795261061, 0.0016650301449196631, 0.00167734365890358, 0.0015716099386820395, 0.0016909325894727972, 0.00172286067776, 0.0015325820984030305, 0.0017054567843073174, 0.0016658916579774029, 0.001450210503363005, 0.0016803374631636325, 0.0014302849989163032, 0.0015603277046864793, 0.0016745953827726895, 0.0015990027142408364, 0.0016882787829180517, 0.0017321276638742646, 0.001651910006093279, 0.001702819212295117, 0.0017293306841157379, 0.0015176334862419677, 0.001693532435500416, 0.0016422555555635988, 0.0015751546350857974, 0.0016510466376592485, 0.0016412038664360422, 0.0015129271696654178, 0.0016677838325647354, 0.0014375416848193814, 0.0017155285398877584, 0.001613907879673754, 0.0016206260426083995, 0.001683329875891467, };
const int32_t shift13[96] = {-9, -9, -9, -9, -9, -9, -9, -9, -9, -9, -9, -9, -9, -9, -10, -9, -9, -9, -9, -9, -9, -9, -9, -9, -9, -9, -9, -9, -9, -9, -9, -9, -9, -9, -9, -9, -9, -9, -9, -9, -9, -9, -9, -9, -9, -9, -9, -9, -9, -9, -9, -9, -9, -10, -9, -9, -9, -9, -9, -9, -9, -9, -9, -9, -9, -9, -9, -9, -9, -9, -9, -9, -9, -9, -9, -9, -9, -9, -9, -9, -9, -9, -9, -9, -9, -9, -9, -9, -9, -9, -9, -9, -9, -9, -9, -9, };
const int32_t multiplier13[96] = {1287834233, 1192816024, 1739246055, 1913325191, 1615789883, 1829433610, 1826417288, 1911561604, 1887722923, 1876498800, 1525249916, 1889140388, 1836632458, 1862553987, 1838374114, 1800159328, 1891777439, 1904461697, 1560485101, 1912952550, 1854565486, 1805080677, 1748018598, 1670620702, 1846752426, 1897004109, 1767226122, 1689264844, 1739938638, 1686592943, 1733850234, 1599819851, 1833392075, 1864244303, 1496890748, 1701267740, 1661314697, 1634418554, 1838710886, 1766886291, 1845872163, 1814671434, 1630722570, 1879140950, 1908996634, 1790556501, 1385989803, 1687522677, 1870407507, 1483367026, 1802710018, 1562459998, 1858185650, 1606713888, 1812787656, 1879962903, 1387096252, 1763637068, 1662375841, 1865633039, 1869254052, 1577567276, 1850527801, 1752679676, 1830720005, 1844258857, 1728003402, 1859200044, 1894305348, 1685091838, 1875169565, 1831667249, 1594523311, 1847550579, 1572614987, 1715598454, 1841237095, 1758122077, 1856282153, 1904494507, 1816294260, 1872269524, 1901419195, 1668655665, 1862058605, 1805679079, 1731900837, 1815344976, 1804522735, 1663481015, 1833747717, 1580593798, 1886243577, 1774510480, 1781897178, 1850840772, };
const unsigned char weight14[1536] = {0x8d, 0x2e, 0x11, 0x85, 0xb1, 0x31, 0xdf, 0xb4, 0x76, 0xcf, 0x86, 0x5b, 0xa8, 0x56, 0x81, 0x00, 0xaf, 0xc8, 0x29, 0x7c, 0x7c, 0x51, 0x27, 0x8d, 0xe2, 0xa3, 0x05, 0x82, 0x99, 0xd7, 0x23, 0xdd, 0x8f, 0xf8, 0xcb, 0xe7, 0x4b, 0x6e, 0xd2, 0x79, 0x96, 0x68, 0xad, 0x1b, 0x35, 0x00, 0xb6, 0xf2, 0xc2, 0xf3, 0x64, 0xfa, 0x69, 0x5c, 0x9b, 0x7f, 0xed, 0x36, 0x34, 0xc3, 0xa2, 0x6f, 0x7a, 0xe3, 0xff, 0xd8, 0x93, 0xcc, 0x17, 0x48, 0xa7, 0x88, 0x97, 0x5b, 0x2d, 0x9d, 0xbf, 0x9a, 0xfb, 0x61, 0x8c, 0x12, 0x48, 0x9a, 0x37, 0x25, 0x59, 0xd3, 0x0b, 0x02, 0x7e, 0x2d, 0xa5, 0x4a, 0x4f, 0x9e, 0x57, 0x8d, 0xf2, 0x63, 0x2a, 0xed, 0x1d, 0x0f, 0x1f, 0x7b, 0x03, 0x1a, 0x66, 0x1e, 0x0f, 0x73, 0x29, 0x5d, 0xfe, 0xf6, 0x7b, 0x13, 0x70, 0xb9, 0x85, 0x2f, 0x74, 0x61, 0x2a, 0x4b, 0x64, 0x28, 0x9c, 0x20, 0x25, 0xb9, 0x9f, 0x7b, 0x35, 0x1f, 0x5d, 0xec, 0xf4, 0xae, 0x38, 0xa5, 0x52, 0x72, 0x25, 0x4f, 0xd1, 0x0e, 0x10, 0x31, 0xc4, 0x1c, 0x93, 0xad, 0x81, 0x9e, 0x3b, 0x46, 0xf0, 0x9d, 0xae, 0x41, 0xd1, 0x01, 0xe1, 0xef, 0xf8, 0xb3, 0xe3, 0x58, 0x74, 0x9d, 0x8e, 0x44, 0x84, 0xf6, 0x66, 0xf0, 0xac, 0x2b, 0x4a, 0x45, 0x5f, 0xfb, 0x38, 0xba, 0xd1, 0x05, 0x4e, 0x63, 0x88, 0xf0, 0x91, 0x67, 0x3d, 0x7e, 0x8d, 0x53, 0xfb, 0x21, 0x04, 0x97, 0x18, 0xff, 0xe7, 0xf0, 0xb1, 0x22, 0x9f, 0x87, 0x72, 0x1e, 0xce, 0xa8, 0x7e, 0xb8, 0x43, 0x7a, 0x98, 0xba, 0xe6, 0xc7, 0x69, 0x8f, 0x2a, 0xf4, 0xc2, 0x19, 0xe8, 0xf4, 0xe7, 0x5c, 0xbf, 0x7f, 0x83, 0x8b, 0x82, 0x4c, 0x69, 0x54, 0x32, 0xf1, 0x10, 0x23, 0xe7, 0x68, 0x5d, 0x0c, 0x17, 0x1c, 0x44, 0x32, 0xef, 0x26, 0xec, 0xb3, 0x02, 0xe6, 0x2c, 0x90, 0xa7, 0x53, 0x83, 0x1d, 0xd3, 0xc9, 0xa4, 0x88, 0xf8, 0x46, 0xbd, 0x35, 0x45, 0x6d, 0x84, 0x89, 0xf2, 0xaf, 0xe6, 0xfe, 0x3e, 0xa9, 0x35, 0x00, 0x54, 0x41, 0x0e, 0xcb, 0x6c, 0x1a, 0xac, 0xf7, 0x67, 0x08, 0xdc, 0x9a, 0xc0, 0x4f, 0x39, 0x19, 0x82, 0x81, 0x41, 0xfc, 0x59, 0xef, 0x2b, 0x47, 0x27, 0xea, 0x8e, 0x2b, 0xe0, 0x24, 0x70, 0x12, 0xce, 0xc4, 0x20, 0x8a, 0x25, 0x7e, 0xb9, 0x19, 0xc0, 0xdb, 0x0d, 0xaa, 0xa1, 0x63, 0xb5, 0x83, 0xdc, 0xe9, 0xa5, 0x0d, 0x75, 0xc4, 0x6c, 0x11, 0x4c, 0xba, 0x0e, 0x65, 0x47, 0x42, 0x65, 0x00, 0x88, 0x55, 0xa9, 0x62, 0xb9, 0x69, 0xbc, 0x52, 0x9f, 0x1e, 0xd3, 0x16, 0xa0, 0x22, 0x07, 0xbf, 0x46, 0x61, 0x75, 0x7e, 0x5c, 0x40, 0xe1, 0xfc, 0xb5, 0x7f, 0xd7, 0xd5, 0x77, 0x7e, 0x07, 0x24, 0x32, 0xfb, 0x67, 0x12, 0xe0, 0xd9, 0xa0, 0x04, 0x0a, 0xe2, 0x04, 0x3b, 0x40, 0xca, 0xc8, 0x8a, 0x90, 0xd4, 0x7e, 0x7c, 0xd0, 0x6b, 0xa3, 0x47, 0x98, 0x5a, 0x0c, 0x73, 0x33, 0x83, 0xc8, 0x8f, 0xf2, 0x79, 0x7f, 0x8a, 0x83, 0x30, 0x6c, 0xa7, 0x5c, 0xd3, 0xec, 0x9f, 0xf8, 0x2f, 0x1a, 0xc6, 0x62, 0x61, 0xb6, 0x05, 0x36, 0xb0, 0x72, 0xc9, 0x1f, 0xe3, 0x67, 0x14, 0x59, 0x82, 0x6c, 0x4c, 0x16, 0x67, 0x3c, 0xd6, 0x15, 0xb0, 0x07, 0x0a, 0x2b, 0xee, 0x8c, 0x64, 0x8f, 0xdb, 0xcc, 0x91, 0x1f, 0x86, 0x9b, 0xf2, 0x9a, 0x36, 0xee, 0x17, 0x39, 0xcb, 0xa3, 0x99, 0xf8, 0x67, 0x88, 0x1c, 0xb5, 0x5f, 0x72, 0x52, 0xe9, 0xae, 0x44, 0x59, 0x11, 0xd6, 0x61, 0xd6, 0x1b, 0xde, 0x8b, 0xba, 0x2b, 0x42, 0xc2, 0xb8, 0xe6, 0x5e, 0xd0, 0xab, 0xbc, 0xcb, 0x89, 0x0e, 0xb9, 0x00, 0xb2, 0x9e, 0x43, 0xc3, 0x42, 0xd8, 0x97, 0x08, 0x3b, 0xf1, 0x14, 0x37, 0xd9, 0x09, 0xd6, 0x67, 0x32, 0xa7, 0x8b, 0xdc, 0xd0, 0x85, 0x88, 0x7f, 0xc0, 0x1a, 0x75, 0x5a, 0x4a, 0xcb, 0xde, 0xa7, 0x14, 0x84, 0xc1, 0x3b, 0x1c, 0x62, 0xc6, 0xb4, 0xff, 0x83, 0xae, 0xc6, 0x5e, 0x1c, 0xd5, 0xb4, 0xcc, 0xd8, 0xc7, 0x1b, 0x82, 0xa3, 0xcf, 0x40, 0x81, 0x65, 0x82, 0x46, 0x2d, 0x20, 0x87, 0xed, 0x90, 0x85, 0x76, 0x72, 0x88, 0x00, 0x60, 0x1c, 0x98, 0x55, 0xbf, 0x09, 0x7a, 0x60, 0xf1, 0x7d, 0x22, 0x5b, 0x8d, 0x23, 0x0f, 0x22, 0x3d, 0x97, 0x9f, 0x83, 0xe1, 0xe4, 0xab, 0xb0, 0xc1, 0x64, 0xc9, 0x16, 0xde, 0xdf, 0x11, 0x93, 0xad, 0xf3, 0x7f, 0x77, 0x79, 0x9b, 0x17, 0x7e, 0x3f, 0x09, 0xf9, 0xf7, 0xdb, 0x2e, 0x54, 0x47, 0x4b, 0x4b, 0x93, 0x8c, 0xe0, 0x7c, 0x4d, 0xd1, 0xd1, 0x89, 0x36, 0x61, 0x10, 0xda, 0x5d, 0x68, 0x81, 0xc5, 0x15, 0x1d, 0x72, 0xee, 0x86, 0x6a, 0x4c, 0xa9, 0x6d, 0xdd, 0x6c, 0x4f, 0x74, 0xff, 0x1b, 0x35, 0xdc, 0x8e, 0x49, 0x86, 0x3f, 0xb1, 0x90, 0x89, 0x65, 0x1a, 0x12, 0xfb, 0x41, 0x98, 0x70, 0x53, 0x3b, 0xd0, 0x8b, 0x67, 0xd8, 0xc7, 0xb6, 0xcb, 0x62, 0x41, 0x9a, 0x79, 0x4d, 0xad, 0xe4, 0xb4, 0x09, 0x74, 0x32, 0x03, 0x93, 0x07, 0x39, 0x6c, 0x87, 0x8d, 0x41, 0x22, 0xdb, 0x1c, 0x8f, 0x63, 0x6c, 0x27, 0x02, 0x42, 0x7f, 0x09, 0x71, 0x0b, 0x4a, 0xa7, 0x1d, 0x02, 0x3a, 0xa6, 0xd8, 0x13, 0x57, 0x42, 0xcb, 0xd3, 0xea, 0x02, 0xbf, 0xf6, 0x55, 0x57, 0xbb, 0xc5, 0xf9, 0x31, 0xb6, 0x69, 0x55, 0xb6, 0x99, 0x77, 0xd0, 0xb5, 0x0a, 0xcf, 0x2b, 0xe2, 0xb1, 0x04, 0x8e, 0xbe, 0xd4, 0x44, 0x61, 0xe8, 0x97, 0xd2, 0x35, 0xfe, 0xdc, 0xac, 0xed, 0x74, 0xe1, 0xe5, 0x90, 0x7c, 0x06, 0x3a, 0x42, 0xd0, 0x98, 0xfc, 0xd4, 0xf4, 0x53, 0xec, 0x76, 0xf1, 0xd2, 0xa0, 0x51, 0x40, 0x9c, 0x99, 0x45, 0x5c, 0x95, 0x4b, 0x0e, 0xd3, 0x29, 0x14, 0xb2, 0x98, 0xba, 0xdd, 0xab, 0x04, 0xfc, 0x44, 0x78, 0xb2, 0xb8, 0x29, 0x48, 0x39, 0xb8, 0xa1, 0x82, 0xd3, 0x1f, 0xc8, 0xf0, 0x6f, 0xa7, 0x03, 0x9c, 0xcb, 0x87, 0xf7, 0xeb, 0xc9, 0x6f, 0x0f, 0x87, 0xfb, 0x23, 0x60, 0x79, 0x02, 0x96, 0xde, 0x9b, 0xa0, 0xc0, 0x8e, 0x45, 0x6c, 0x8e, 0x26, 0xb1, 0xbf, 0x7f, 0xb6, 0x56, 0x86, 0x7d, 0x08, 0x56, 0xe1, 0x0e, 0x25, 0x60, 0xbf, 0x6a, 0x91, 0x23, 0x16, 0x95, 0x95, 0x11, 0x9a, 0xd5, 0xa3, 0x45, 0x32, 0xed, 0x73, 0xb2, 0x3c, 0xc3, 0xb0, 0xd1, 0x5b, 0x04, 0xff, 0xb8, 0x31, 0x35, 0x74, 0x8d, 0x55, 0x8b, 0x33, 0x3c, 0x24, 0x32, 0xe3, 0x2a, 0xff, 0x11, 0x87, 0xc8, 0x00, 0xf8, 0x16, 0xff, 0xb8, 0x06, 0x39, 0x75, 0x3c, 0x69, 0xef, 0x2e, 0xc2, 0x83, 0x11, 0x57, 0xdf, 0x36, 0x7a, 0x7b, 0xd2, 0xcf, 0x26, 0xb1, 0x47, 0x8f, 0x3d, 0x40, 0xe9, 0x51, 0xa5, 0xf3, 0xff, 0x5c, 0x41, 0x19, 0x27, 0x9f, 0xbf, 0x9b, 0x84, 0x34, 0x67, 0x8b, 0x69, 0x75, 0x28, 0xa1, 0x27, 0xe9, 0xd2, 0x42, 0x11, 0x5b, 0x0c, 0x90, 0xc9, 0xac, 0xa6, 0x7f, 0xc1, 0x08, 0x48, 0x9b, 0xe8, 0xb8, 0x5c, 0xdd, 0x78, 0xa2, 0x98, 0xa8, 0xea, 0xff, 0xd3, 0x28, 0xbd, 0xaf, 0x54, 0x18, 0x1d, 0x48, 0xe4, 0xf5, 0x53, 0x2e, 0xc9, 0x8d, 0x94, 0x7d, 0x7c, 0x8d, 0x16, 0xb2, 0xaa, 0xd3, 0x74, 0xed, 0x57, 0x17, 0x5f, 0xc9, 0xf5, 0xcb, 0xa4, 0x72, 0xe1, 0x84, 0x54, 0xc1, 0x4e, 0x8e, 0x71, 0x0b, 0x3f, 0x94, 0x94, 0xf6, 0xfb, 0x30, 0xf9, 0xf4, 0xdb, 0xb7, 0xfd, 0xff, 0xc0, 0x3c, 0x56, 0xc0, 0x83, 0x5e, 0x59, 0x7a, 0x70, 0x4e, 0x2c, 0x38, 0x35, 0x40, 0xbc, 0x17, 0x24, 0xa1, 0xbd, 0x08, 0xfe, 0x5a, 0x58, 0xb4, 0x54, 0xed, 0x13, 0xbe, 0xf1, 0x21, 0x7f, 0xc7, 0xdc, 0x4d, 0x93, 0x9a, 0x6b, 0x11, 0x8c, 0xc2, 0x59, 0x02, 0x56, 0xa6, 0xd7, 0xc2, 0x2e, 0xc4, 0x70, 0x24, 0x5c, 0xd4, 0xc1, 0x6b, 0x6f, 0xd9, 0x92, 0x5f, 0xf7, 0x3e, 0x56, 0x27, 0x05, 0x15, 0x96, 0x88, 0x18, 0x3b, 0x05, 0x34, 0x3f, 0x7f, 0xa1, 0x86, 0x0f, 0xbe, 0xf4, 0x9a, 0xf7, 0xf0, 0x89, 0x3d, 0x08, 0xc6, 0x13, 0xdd, 0x7c, 0x4f, 0x23, 0x58, 0x75, 0x08, 0xbf, 0x91, 0x1e, 0xcd, 0x36, 0x90, 0xab, 0xd4, 0xe0, 0xb5, 0x71, 0x71, 0x09, 0x0c, 0x43, 0x41, 0x69, 0xca, 0x44, 0xd5, 0xb5, 0x35, 0xe9, 0x70, 0x76, 0xbc, 0x21, 0x6b, 0xba, 0x0c, 0x70, 0xa2, 0xc5, 0xc3, 0xe5, 0x92, 0x2b, 0x54, 0xc0, 0x58, 0xd6, 0x18, 0xec, 0xc5, 0x77, 0x6f, 0xba, 0xc7, 0xdc, 0x36, 0xbf, 0xc4, 0x56, 0x59, 0x61, 0xc5, 0xf2, 0x1e, 0x81, 0x53, 0x2b, 0x1c, 0x94, 0x9f, 0x81, 0x87, 0x35, 0x2f, 0x9e, 0x6c, 0x7f, 0xbc, 0xd0, 0x55, 0x25, 0x5d, 0x46, 0x45, 0x0e, 0x9b, 0xef, 0x4f, 0x68, 0x0e, 0x89, 0x60, 0xd0, 0x83, 0x66, 0xae, 0x03, 0xdb, 0xa8, 0xc3, 0xea, 0x98, 0x15, 0xbc, 0x69, 0x83, 0x9d, 0xa6, 0x2d, 0xfe, 0xa1, 0x5c, 0x61, 0x33, 0x02, 0xeb, 0x9a, 0x20, 0x3c, 0xfd, 0xa4, 0xfa, 0x3c, 0xf5, 0xeb, 0xc2, 0x6d, 0x83, 0x85, 0x18, 0xd0, 0x38, 0x60, 0x28, 0x42, 0xf1, 0x23, 0x1f, 0x62, 0x8e, 0x6b, 0x0d, 0x6b, 0x7f, 0x04, 0xcb, 0x4c, 0x7c, 0x97, 0xcb, 0x2f, 0xc0, 0x2d, 0x31, 0x48, 0x4c, 0xf3, 0xff, 0x5b, 0x89, 0xed, 0x13, 0x9c, 0xd9, 0x4c, 0x7a, 0x52, 0xb3, 0xd3, 0xbb, 0x09, 0xf6, 0x6c, 0x59, 0x03, 0x8c, 0x76, 0x5e, 0x8c, 0xd0, 0xbd, 0x95, 0x72, 0xa0, 0x20, 0x15, 0xa6, 0xc0, 0xc4, 0xb3, 0x5f, 0x24, 0x4d, 0x70, 0x49, 0x3d, 0xb9, 0x11, 0x12, 0xbb, 0xfb, 0xfc, 0x93, 0x40, 0xd9, 0x39, 0x1b, 0x3e, 0x08, 0x84, 0x5b, 0xca, 0x76, 0x6f, 0x4a, 0x7b, 0x25, 0x27, 0x95, 0x46, 0xcf, 0x65, 0xf0, 0xc4, 0x3e, 0xac, 0xc9, 0x67, 0xf1, 0x2a, 0xc1, 0xc7, 0xf2, 0x18, 0x60, 0x46, 0x4a, 0xe3, 0x40, 0x5e, 0x62, 0xdd, 0xe5, 0xc7, 0xda, 0x50, 0x5a, 0xea, 0xb4, 0x01, 0x53, 0xa1, 0x7d, 0x12, 0x75, 0x99, 0x49, 0x19, 0x1b, 0xe6, 0xfc, 0x5a, 0x8f, 0x48, 0xd0, 0x4e, 0x7f, 0xb5, 0xef, 0x62, 0xb0, 0x22, 0x57, 0x9c, 0xa0, 0x6d, 0x3c, 0x1b, 0xf3, 0x95, 0x7b, 0x7d, 0x78, 0xe8, 0xc9, 0x12, 0xaa, 0x0b, 0x39, 0x1d, 0x3c, 0x24, 0xd7, 0xb1, 0x4a, 0x2c, 0xcd, 0xdf, 0x90, 0x5e, 0x98, 0x9f, 0x2d, 0x56, 0x66, 0xb1, 0xcf, 0x10, 0xb8, 0xd5, 0x50, 0x9d, 0xf2, 0x9e, 0x61, 0x78, 0x57, 0x0d, 0x3b, 0x38, 0x4e, 0x42, 0xd7, 0xd9, 0x12, 0x35, 0x7d, 0x1b, 0xae, 0xed, 0xae, 0x68, 0xd5, 0x5a, 0xfa, 0x3a, 0x4a, 0x9e, 0x19, 0x96, 0xf1, 0x91, 0xf8, 0xba, 0x8c, 0xd9, 0x78, 0xe1, 0x27, 0x88, 0x5d, 0x41, 0x0f, 0xc9, 0x67, 0x4d, 0x58, 0x14, 0x5e, 0x2a, 0xb8, 0xb8, 0x41, 0x58, 0x47, 0x7f, 0x6f, 0x7c, 0x94, 0x10, 0xc3, 0x23, 0x6f, 0x78, 0x2a, 0x5d, 0x19, 0xcd, 0x3b, 0x6f, 0xe2, 0xf8, 0x3d, 0x95, 0x29, 0xe6, 0x75, 0xc1, 0xd7, 0xde, 0xe2, 0x2d, 0xb8, 0xbc, 0x47, 0x2a, 0x88, 0x5f, 0x85, 0x4c, 0x18, 0xe0, 0x49, 0xfc, 0x36, 0x3a, 0x8d, 0xf5, 0x76, 0x5f, 0x28, 0xeb, 0x56, 0x72, 0x49, 0x51, 0xa9, 0xa6, 0x2f, 0x93, 0xce, 0x14, 0x92, 0x39, 0x05, 0x22, 0xcd, 0x28, 0xfb, };
const int32_t bias14[16] = {19079, 15723, 13272, 31018, -1454, -4493, 6648, -28217, 9626, -20194, -29032, -15398, 29084, -327, 16092, -1308, };
const float scales14[16] = {0.0013163202470187479, 0.0013292696543589302, 0.00133264370786606, 0.0013273260007351892, 0.0013309031124289692, 0.0013307265485009582, 0.0013207600659226675, 0.0013102043278255928, 0.0012845564350473034, 0.0013345975143991332, 0.0013099752588521764, 0.0013201383210940194, 0.0013333317850356802, 0.0013320389812473406, 0.0013166614814666949, 0.0012917888841839109, };
const int32_t shift14[16] = {-9, -9, -9, -9, -9, -9, -9, -9, -9, -9, -9, -9, -9, -9, -9, -9, };
const int32_t multiplier14[16] = {1447309417, 1461547441, 1465257252, 1459410372, 1463343448, 1463149313, 1452191050, 1440584893, 1412384737, 1467405485, 1440333029, 1451507434, 1466013801, 1464592349, 1447684609, 1420336899, };
const unsigned char weight15[1536] = {0xa8, 0xb0, 0x23, 0x29, 0x58, 0xc6, 0x55, 0xb5, 0xc5, 0x81, 0x29, 0x2d, 0xdb, 0x12, 0xb1, 0x79, 0xf7, 0x6c, 0x6b, 0xfd, 0x65, 0xb0, 0x8e, 0x79, 0x7f, 0x8b, 0x71, 0xbd, 0xb2, 0x68, 0x74, 0xd5, 0xee, 0xec, 0x22, 0x7f, 0x62, 0xd5, 0x82, 0x0d, 0xd6, 0xe2, 0x41, 0x08, 0x48, 0x64, 0xc8, 0x4a, 0x3b, 0x50, 0xac, 0x44, 0xd9, 0x7f, 0x57, 0xa4, 0xdb, 0xf0, 0x68, 0xb4, 0x0d, 0x57, 0x91, 0xd6, 0x34, 0x49, 0x71, 0x6e, 0x8e, 0xa7, 0x52, 0x81, 0xe6, 0x05, 0xb0, 0x42, 0xec, 0x94, 0x75, 0xeb, 0xa4, 0xdd, 0xce, 0xcd, 0x24, 0x24, 0x7f, 0xe7, 0xd7, 0xa0, 0x61, 0xb6, 0x22, 0x01, 0xb6, 0xea, 0x98, 0x33, 0x14, 0xb5, 0x85, 0xd7, 0x5e, 0x42, 0x20, 0xc2, 0x64, 0x71, 0xc0, 0x81, 0x25, 0xd1, 0x35, 0x45, 0x88, 0x7a, 0x7f, 0xb2, 0x22, 0x9f, 0x52, 0x3b, 0x62, 0xd1, 0xca, 0x0e, 0x86, 0x67, 0xe4, 0x62, 0xbd, 0x23, 0x5e, 0x60, 0x67, 0x2a, 0x5e, 0x96, 0x81, 0xd9, 0x41, 0x9a, 0x47, 0x76, 0x61, 0x19, 0x41, 0x28, 0x46, 0xd1, 0x81, 0x7c, 0x81, 0xc7, 0x52, 0xec, 0xdb, 0x50, 0xd5, 0x6d, 0x22, 0x2c, 0x2f, 0x01, 0x81, 0x4e, 0x2f, 0x0e, 0x69, 0xa7, 0x4e, 0x9e, 0x06, 0x72, 0x3f, 0x46, 0xdd, 0xc9, 0x81, 0x13, 0x16, 0x39, 0xb4, 0xf4, 0x26, 0xa6, 0x7c, 0xd7, 0x81, 0xce, 0xea, 0x3e, 0x9a, 0x5b, 0xc5, 0xff, 0x65, 0x09, 0x32, 0x66, 0x44, 0x8a, 0xce, 0xdf, 0x83, 0xcb, 0x84, 0x81, 0x61, 0x98, 0x10, 0x26, 0xcf, 0x00, 0x74, 0x1e, 0x81, 0x5d, 0x05, 0xcd, 0xe4, 0x6c, 0x57, 0xfc, 0x2f, 0xe9, 0xe7, 0x74, 0xf6, 0xb6, 0xa3, 0x58, 0xb6, 0x81, 0xe1, 0x98, 0xc3, 0xc9, 0xa2, 0xec, 0x96, 0x64, 0x99, 0xdc, 0x7f, 0xd5, 0xf7, 0xdf, 0x98, 0x60, 0x94, 0x2b, 0x97, 0xe6, 0xed, 0x82, 0x6d, 0xd4, 0x7a, 0xd8, 0x81, 0x8a, 0x30, 0x31, 0x33, 0x3c, 0x1b, 0x0d, 0x43, 0x54, 0x63, 0x73, 0x09, 0x93, 0xce, 0x98, 0x40, 0xeb, 0xc6, 0x0c, 0xaf, 0x7f, 0x15, 0xde, 0x11, 0x1b, 0xce, 0xb5, 0xd7, 0xe0, 0x46, 0x06, 0x59, 0x46, 0xb5, 0xd4, 0x6c, 0xeb, 0x38, 0x50, 0x45, 0x7f, 0x5c, 0x24, 0x81, 0xc9, 0xa8, 0x19, 0x84, 0xe7, 0x6f, 0x59, 0x8f, 0x75, 0x6b, 0xa8, 0xe5, 0x7d, 0xdf, 0x2d, 0x97, 0x32, 0xeb, 0xc1, 0x7f, 0xca, 0x6d, 0x62, 0xd8, 0x9f, 0x72, 0x73, 0x8c, 0x10, 0x0e, 0xe6, 0xf4, 0x93, 0xd8, 0x7f, 0x4b, 0x3c, 0xb2, 0x97, 0xcb, 0xaa, 0xb1, 0x20, 0x22, 0xae, 0xe8, 0x37, 0x61, 0x5d, 0x51, 0xac, 0xec, 0x8e, 0xa2, 0xfc, 0x57, 0x63, 0x62, 0x3c, 0x91, 0xd8, 0x81, 0x32, 0x7d, 0xa0, 0x04, 0x36, 0x5e, 0x6e, 0x6c, 0xbe, 0x52, 0xeb, 0x4b, 0x2e, 0xb8, 0x7f, 0x58, 0x2a, 0x15, 0x23, 0x6c, 0x22, 0xf6, 0x21, 0x67, 0x3a, 0x35, 0x89, 0x39, 0x86, 0x4f, 0x7f, 0x61, 0xa6, 0x4e, 0x51, 0x90, 0x99, 0x54, 0xf9, 0xfa, 0xfc, 0x96, 0xa8, 0x46, 0x30, 0x02, 0x46, 0xd3, 0x7f, 0x91, 0x9c, 0xbf, 0x33, 0x81, 0x96, 0x90, 0xd3, 0x28, 0x47, 0x76, 0xed, 0xa9, 0x6d, 0x75, 0x1b, 0x3d, 0x1d, 0xd3, 0xbf, 0x7a, 0xe6, 0x05, 0x4f, 0x2c, 0x85, 0xe2, 0xef, 0x81, 0x05, 0x49, 0x6f, 0x88, 0xf7, 0x32, 0xee, 0x1b, 0x00, 0x8f, 0xd2, 0x0b, 0x7e, 0xa8, 0xac, 0x5d, 0x3e, 0x81, 0xf4, 0x3c, 0x76, 0x92, 0x3d, 0x94, 0xde, 0x51, 0x8c, 0xb1, 0xe7, 0xb3, 0x86, 0xd7, 0xc7, 0x81, 0x5d, 0x22, 0x32, 0x4b, 0xa2, 0x14, 0x1c, 0x3f, 0x4d, 0x7f, 0x27, 0x10, 0xae, 0xd7, 0x17, 0x4b, 0x98, 0x29, 0x2c, 0x81, 0xa0, 0x47, 0x73, 0x52, 0xfb, 0xe7, 0xe8, 0xcc, 0x0b, 0xca, 0xc0, 0x7a, 0xaa, 0xaf, 0x12, 0x81, 0x6f, 0xf5, 0x7b, 0x46, 0xa5, 0xd7, 0x21, 0x4f, 0xde, 0xdf, 0x71, 0x2b, 0xf8, 0x21, 0xab, 0xb7, 0x22, 0xc1, 0x81, 0xc3, 0x36, 0xda, 0x6a, 0x27, 0x55, 0x90, 0xa7, 0x5f, 0x9a, 0x57, 0x40, 0x94, 0x0c, 0xa0, 0x9b, 0x0b, 0x7f, 0xfb, 0x25, 0xed, 0x77, 0x0e, 0x54, 0x7f, 0xf3, 0xc8, 0xec, 0xa0, 0xce, 0x90, 0xf0, 0xf7, 0xfa, 0x81, 0x4e, 0x53, 0x54, 0xdd, 0x9d, 0xc5, 0x81, 0xcf, 0xd0, 0xe0, 0xd9, 0x54, 0xeb, 0x62, 0x6a, 0x1a, 0xa3, 0x7e, 0x8a, 0x84, 0x81, 0x2f, 0xa2, 0x5e, 0x97, 0x6a, 0x48, 0x45, 0x4c, 0x00, 0x81, 0x49, 0x09, 0x21, 0x07, 0xf8, 0x0e, 0x93, 0x09, 0x7f, 0x4e, 0xbc, 0xb5, 0x59, 0x0b, 0xcb, 0xce, 0x03, 0xe7, 0x2b, 0x97, 0xfe, 0xa1, 0x69, 0x29, 0x73, 0x15, 0x3d, 0xd8, 0x9c, 0x40, 0x7f, 0x68, 0xbd, 0x1f, 0x1b, 0x24, 0xf6, 0x7f, 0x21, 0xaf, 0xb0, 0xd2, 0xa1, 0xd6, 0x54, 0xd6, 0xf8, 0x11, 0xe5, 0x4e, 0x6f, 0x51, 0x81, 0x4f, 0x37, 0x8f, 0x02, 0xfe, 0x69, 0x6d, 0xf6, 0x11, 0x81, 0xaa, 0x09, 0x81, 0xd4, 0xef, 0xd3, 0xf3, 0xb2, 0xc6, 0x05, 0xac, 0x88, 0x6b, 0x6b, 0x5a, 0x46, 0x34, 0x4e, 0x2a, 0x15, 0x61, 0x81, 0x98, 0xc2, 0x86, 0xd5, 0xa3, 0x35, 0xbc, 0x71, 0x0b, 0x29, 0xbb, 0x23, 0xe4, 0xaa, 0x1a, 0x6f, 0xae, 0x7f, 0x8b, 0xf8, 0xb7, 0x64, 0x0a, 0x54, 0x27, 0x57, 0x7f, 0xa8, 0x65, 0xbf, 0x40, 0xdd, 0x36, 0x64, 0xbd, 0x98, 0x93, 0xcc, 0xbc, 0x49, 0x3f, 0x8d, 0x13, 0xb9, 0x1d, 0xfd, 0x9b, 0x81, 0xe9, 0x99, 0x73, 0x88, 0x4b, 0x8d, 0xe9, 0xae, 0x65, 0x99, 0x2c, 0x8c, 0xb3, 0xb2, 0xfb, 0x81, 0x3c, 0x4e, 0xe9, 0xf3, 0x40, 0x8b, 0x1e, 0xff, 0x87, 0x1b, 0x00, 0x77, 0x87, 0x1c, 0x1b, 0x54, 0x81, 0x47, 0x4e, 0xbb, 0x05, 0xda, 0x15, 0x30, 0xe3, 0x5f, 0x59, 0xf3, 0x26, 0x64, 0xbd, 0x3a, 0x81, 0x2a, 0x21, 0x26, 0x40, 0xb4, 0xb2, 0x2c, 0x09, 0x70, 0xbf, 0xaf, 0xf6, 0x09, 0xfa, 0x73, 0x0b, 0x81, 0x14, 0x60, 0x76, 0xe8, 0xd4, 0x81, 0x92, 0x2b, 0x18, 0x2f, 0xf6, 0xb1, 0x5c, 0x69, 0x8d, 0x55, 0xc7, 0xaa, 0x7f, 0x70, 0xcb, 0xe0, 0xa0, 0xcb, 0x77, 0xaf, 0x55, 0x20, 0x95, 0xe8, 0xb7, 0x1a, 0x31, 0x0c, 0x7f, 0x5f, 0xa0, 0x8c, 0x45, 0x0b, 0xad, 0xcf, 0x7f, 0x98, 0x9d, 0xd7, 0x9e, 0xfe, 0x90, 0xc6, 0x4c, 0xec, 0x53, 0xfd, 0x4c, 0x81, 0x6d, 0x04, 0x2e, 0x55, 0x8f, 0xa4, 0xa2, 0x39, 0x67, 0x70, 0x81, 0xa6, 0x41, 0xf8, 0xd2, 0x83, 0x9e, 0xa8, 0x98, 0xba, 0x9c, 0x3f, 0x52, 0x07, 0x8a, 0x28, 0x55, 0x88, 0xd3, 0x7f, 0x6a, 0xa7, 0x70, 0x02, 0x67, 0x9e, 0xd2, 0xd3, 0x89, 0xaf, 0x9d, 0x67, 0xfd, 0x0d, 0x4a, 0x23, 0x2f, 0xd7, 0xfe, 0x40, 0x04, 0x81, 0xda, 0x2a, 0x33, 0xf1, 0x51, 0x53, 0xf2, 0x78, 0xcc, 0x78, 0x81, 0x73, 0x1e, 0x17, 0x66, 0x7b, 0xb5, 0x6b, 0xad, 0x48, 0xc3, 0xcd, 0x8a, 0xf5, 0xfc, 0x7f, 0x3f, 0x82, 0xda, 0x07, 0xa5, 0x2a, 0x53, 0x72, 0xdd, 0x51, 0x8b, 0x3e, 0x34, 0x7f, 0x2d, 0x69, 0x2c, 0x20, 0xdd, 0x2c, 0xb5, 0xb8, 0x73, 0x5c, 0x7d, 0x8e, 0x31, 0x0e, 0x81, 0x6b, 0xe2, 0xfc, 0xf6, 0x02, 0x3c, 0x3f, 0x3d, 0x7d, 0xbb, 0xad, 0xb9, 0xfa, 0xd8, 0x4a, 0xed, 0x61, 0x65, 0xf3, 0x81, 0x42, 0x7e, 0x3c, 0x31, 0xe7, 0x71, 0x7b, 0x8d, 0x1e, 0x2e, 0x41, 0xcb, 0x54, 0xbb, 0xf0, 0x95, 0x7f, 0x0d, 0x09, 0x77, 0xb9, 0x8a, 0x21, 0x66, 0x2d, 0x23, 0x02, 0xee, 0xe4, 0x7f, 0x40, 0x32, 0xac, 0x2f, 0xf1, 0xc4, 0x44, 0xd7, 0x67, 0x92, 0xf9, 0x2d, 0x6e, 0x7f, 0x55, 0x56, 0x38, 0xb4, 0x4c, 0xa6, 0x94, 0x42, 0x81, 0xaa, 0x22, 0x93, 0x4c, 0x78, 0x19, 0x95, 0xce, 0x7c, 0x31, 0xd9, 0xd9, 0x33, 0x63, 0x0e, 0x0d, 0xe7, 0x8d, 0x7f, 0x27, 0x29, 0x52, 0xe5, 0x21, 0x81, 0xea, 0x8e, 0x5a, 0xf2, 0x96, 0xd0, 0x17, 0xfa, 0xbf, 0x55, 0x61, 0x0f, 0x1a, 0x22, 0x90, 0x7d, 0x3b, 0xd5, 0xfd, 0x98, 0x85, 0x1a, 0x30, 0x81, 0xa7, 0x65, 0x3e, 0x37, 0x88, 0xa2, 0x69, 0x86, 0xb7, 0x1a, 0x83, 0x4b, 0x3b, 0xb6, 0x54, 0xd7, 0x3a, 0x81, 0xea, 0xdb, 0x36, 0xc3, 0x8b, 0xde, 0x8e, 0x60, 0x65, 0x81, 0xa7, 0x92, 0x53, 0xa8, 0x53, 0x7e, 0xf0, 0xdd, 0x2e, 0x83, 0x28, 0x21, 0x87, 0x5d, 0xfd, 0x75, 0x7f, 0x8b, 0x12, 0x0c, 0x08, 0xb4, 0xec, 0x09, 0x3d, 0x81, 0xe6, 0x35, 0xc7, 0x3f, 0x59, 0x7a, 0x03, 0x4a, 0xcc, 0xee, 0xe5, 0x55, 0x33, 0x68, 0xf4, 0x68, 0xcf, 0x2a, 0x30, 0x70, 0x9b, 0x30, 0x74, 0xc4, 0x7f, 0xe8, 0xe3, 0x5e, 0x33, 0x9b, 0xf6, 0x1a, 0x2c, 0x8f, 0x1a, 0x31, 0xa7, 0xe8, 0x2a, 0x28, 0x54, 0x81, 0xa2, 0x87, 0x2a, 0xeb, 0xcf, 0x7f, 0xd5, 0x6e, 0xf6, 0x4a, 0x7e, 0x23, 0xe8, 0xcc, 0xaf, 0x94, 0x43, 0x91, 0x89, 0xf7, 0x8a, 0xc2, 0xea, 0x82, 0x81, 0x51, 0xc1, 0x70, 0x2c, 0x32, 0x61, 0xb3, 0x0f, 0xac, 0x15, 0x18, 0xe4, 0x6f, 0xb8, 0xd0, 0x50, 0x83, 0x69, 0xd1, 0x8e, 0xb5, 0xd9, 0x0d, 0x81, 0x07, 0x7d, 0xa4, 0x06, 0x00, 0xb3, 0x60, 0x2c, 0xfe, 0xa0, 0x9b, 0x7f, 0xdb, 0x7a, 0xc8, 0xfe, 0x5d, 0x26, 0x41, 0xfb, 0x94, 0xf3, 0x91, 0xb0, 0xbb, 0x8e, 0x81, 0x9e, 0xe9, 0xfb, 0xe4, 0xf9, 0x38, 0xc7, 0xce, 0xb3, 0x2a, 0x34, 0xdb, 0xdb, 0xee, 0xb0, 0x81, 0x25, 0xd7, 0x9a, 0x29, 0x49, 0xad, 0x70, 0xd1, 0x21, 0xbf, 0x21, 0xe4, 0xc8, 0x32, 0xf0, 0x1e, 0x2f, 0xec, 0xb6, 0x6d, 0x75, 0x31, 0x81, 0xe8, 0xf4, 0x7b, 0xe5, 0x56, 0x81, 0x83, 0xab, 0xf2, 0xd4, 0xbf, 0x56, 0x72, 0xa6, 0x3e, 0xfd, 0x7c, 0x59, 0x7f, 0x5a, 0xf8, 0x29, 0xec, 0xf5, 0x92, 0xee, 0x7c, 0x28, 0x52, 0xd9, 0xa0, 0x33, 0xdc, 0x7f, 0xaf, 0x7d, 0x54, 0x2d, 0xcb, 0xe3, 0x1d, 0xc3, 0x6f, 0x0a, 0x89, 0xb1, 0x10, 0xda, 0x29, 0xc8, 0xde, 0x43, 0xfd, 0x0b, 0xaf, 0xcd, 0xb7, 0x91, 0x5a, 0xfb, 0x88, 0x57, 0x7f, 0xd6, 0x07, 0x88, 0xa9, 0xb3, 0xed, 0x52, 0x1b, 0x8f, 0xb2, 0x81, 0xa2, 0x7e, 0x18, 0x7d, 0xf6, 0x90, 0x60, 0xce, 0x20, 0xd0, 0x2d, 0x44, 0xb7, 0x3e, 0x2c, 0xd4, 0xd4, 0x7f, 0x99, 0xc8, 0xe3, 0x1d, 0x0f, 0xae, 0x9b, 0xbe, 0x30, 0xa9, 0x79, 0x7f, 0x60, 0x1a, 0x40, 0x05, 0x9a, 0x3e, 0x89, 0xfe, 0xf9, 0x1e, 0xfd, 0x1b, 0x0e, 0x60, 0x12, 0x8f, 0x1d, 0x85, 0xa3, 0xa7, 0x65, 0x4e, 0x81, 0xe7, 0x81, 0x65, 0x5e, 0x24, 0x73, 0x2a, 0xb3, 0x7c, 0x06, 0xae, 0x94, 0x7f, 0xfc, 0x28, 0x36, 0x30, 0x8a, 0xa2, 0x7e, 0xaf, 0x7f, 0x2d, 0xd4, 0x9f, 0x33, 0xda, 0x43, 0x23, 0xbb, 0x63, 0xfe, 0x8b, 0x23, 0x7f, 0xbd, 0x2c, 0x50, 0x5b, 0xb6, 0x2d, 0x45, 0x26, 0xbd, 0xb0, 0x5d, 0xc0, 0xc7, 0xbf, 0x41, 0xf1, 0xf7, 0xf1, 0x3f, 0xbd, 0xee, 0x84, 0xda, 0xed, 0x1c, 0xca, 0x1d, 0x05, 0x7f, 0xce, 0x2e, 0x7f, 0x0a, 0xda, 0xd8, 0xde, 0xf6, 0x3c, 0x2b, 0xab, 0x51, 0x98, 0x70, 0xfa, 0x06, 0x0d, 0x2d, 0x36, 0x71, 0x02, 0x24, 0x88, 0xc2, 0x37, 0x69, 0x81, 0xb6, 0x74, 0x6f, 0x3c, 0x6a, 0xec, 0x11, 0x4f, 0x96, 0xaa, 0xb6, 0x6f, 0xf4, 0xb3, 0x4b, 0xc1, 0x8b, 0x81, 0xdc, 0x5a, 0xf6, 0xfc, 0x38, };
const int32_t bias15[96] = {-5441, -7761, 11240, -4028, -26386, -16534, 10148, -21728, 21112, 13346, 19398, 27487, 11517, -19074, -27635, 16648, 12461, -3711, -31271, 3014, 14976, 8948, 27936, -20239, -397, 6779, -22389, 34156, 29741, -19943, -36003, 5037, 5601, 17384, 13482, -34140, -3520, -6093, -29024, -20019, 27704, -12589, -2863, 4098, 26490, 32157, 17971, -18030, -7901, -27454, 19497, -26220, 24281, 26430, 13358, -22641, 3003, 19876, -4227, 21646, 22039, 10415, -14051, -3626, -3217, -32359, -21312, -7573, 11318, -15167, 8089, -11748, -29947, -17287, 13960, 20989, -10924, -16253, -4544, 1919, 6186, -6755, 31736, -6236, 12304, -31992, -26343, -20953, 7636, -31906, 29723, -2742, -10263, -21397, 9998, -6042, };
const float scales15[96] = {0.0020795556613826304, 0.0018445106029708316, 0.002048852292557742, 0.0020211813291203177, 0.0020348798221774913, 0.002074265648030656, 0.002069193398769788, 0.0020137411596454755, 0.0020419284888774595, 0.0020466254028859237, 0.002035748888692998, 0.001714887242841625, 0.001848796115715229, 0.001988933961899605, 0.0019839855807339637, 0.0020315576450411527, 0.001969861881835846, 0.0020628574710796032, 0.002023076287119284, 0.0019619233795722755, 0.001969657922321617, 0.0019731289650302313, 0.0017348193107351965, 0.0021011861896943866, 0.002056205406142364, 0.0020872236685587327, 0.0020957267904531565, 0.0019259553679691335, 0.0017479462196902996, 0.0020842584205722947, 0.001914490604689438, 0.0019610709780414678, 0.0020348178881298778, 0.0020540633337807314, 0.002080037080455545, 0.0020480462793798656, 0.0020092631290181354, 0.001750823914324288, 0.0019637144923307656, 0.0019018263356080738, 0.00206981721640599, 0.0012751768956624143, 0.0018232559073737091, 0.0020490475464829488, 0.0020889327000493015, 0.002088495430749284, 0.0020104754444722223, 0.0017917599568511495, 0.002065946214064596, 0.0016498842263668748, 0.0020718908877110217, 0.0019496962554253713, 0.001922114586458201, 0.0020079324175533496, 0.0020028772063738535, 0.0020498239606581503, 0.0019830983568470684, 0.0019055326779513957, 0.0019445756279626526, 0.002060310713194007, 0.00191617650418632, 0.002004399938259352, 0.0020063267338410276, 0.0015220497404161242, 0.0020856529315680557, 0.0018196205777636948, 0.0020515800023294378, 0.0020529098432353213, 0.0020865078204100125, 0.002075167422687774, 0.002009352547853947, 0.0020902345587047576, 0.0020993122494746305, 0.0020774842286576333, 0.0020649021652097473, 0.001962821547628227, 0.0020923012655385716, 0.001992429255891923, 0.0017424753788177832, 0.0019796510679599287, 0.0019096270408339824, 0.0019694340643181952, 0.0020287677524907285, 0.0018963306216240661, 0.0019151942650135277, 0.002069537891363943, 0.002078117249345087, 0.0018871028216263428, 0.0020271262514978588, 0.0020952957394310117, 0.0020907959448311164, 0.0020897622183175374, 0.0017795722565859587, 0.0020961088414456633, 0.0020501154735248286, 0.0018362669076292626, };
const int32_t shift15[96] = {-8, -9, -8, -8, -8, -8, -8, -8, -8, -8, -8, -9, -9, -8, -8, -8, -8, -8, -8, -8, -8, -8, -9, -8, -8, -8, -8, -9, -9, -8, -9, -8, -8, -8, -8, -8, -8, -9, -8, -9, -8, -9, -9, -8, -8, -8, -8, -9, -8, -9, -8, -9, -9, -8, -8, -8, -8, -9, -9, -8, -9, -8, -8, -9, -8, -9, -8, -8, -8, -8, -8, -8, -8, -8, -8, -8, -8, -8, -9, -8, -9, -8, -8, -9, -9, -8, -8, -9, -8, -8, -8, -8, -9, -8, -8, -9, };
const int32_t multiplier15[96] = {1143247815, 2028060856, 1126368460, 1111156187, 1118687013, 1140339600, 1137551101, 1107065910, 1122562058, 1125144214, 1119164787, 1885538464, 2032772827, 1093428009, 1090707608, 1116860627, 1082943022, 1134067888, 1112197951, 1078578784, 1082830894, 1084739120, 1907454004, 1155139324, 1130410877, 1147463347, 1152137987, 2117610322, 1921887193, 1145833184, 2105004681, 1078110172, 1118652964, 1129233260, 1143512478, 1125925349, 1104604087, 1925051252, 1079563459, 2091080170, 1137894048, 1402071824, 2004691071, 1126475802, 1148402897, 1148162505, 1105270564, 1970060907, 1135765942, 1814066891, 1139034061, 2143713703, 2113387338, 1103872520, 1101093389, 1126902640, 1090219851, 2095155337, 2138083514, 1132667793, 2106858347, 1101930519, 1102989786, 1673511388, 1146599825, 2000693983, 1127868034, 1128599122, 1147069805, 1140835355, 1104653245, 1149118601, 1154109114, 1142109033, 1135191970, 1079072557, 1150254785, 1095349567, 1915871940, 1088324684, 2099657136, 1082707827, 1115326867, 2085037569, 2105778364, 1137740488, 1142457040, 2074891495, 1114424442, 1151901015, 1149427226, 1148858929, 1956660389, 1152348022, 1127062901, 2018996817, };
const unsigned char CHWweight16[864] = {0x98, 0x4c, 0x22, 0xce, 0x7f, 0x60, 0x28, 0xd0, 0x53, 0x7f, 0x93, 0x8b, 0x16, 0x7a, 0x38, 0x32, 0x27, 0xd6, 0x2d, 0x69, 0x29, 0x10, 0x53, 0x09, 0x81, 0x34, 0x98, 0xfd, 0x54, 0x41, 0x52, 0xc9, 0x5e, 0x81, 0xe1, 0x5a, 0xed, 0xb6, 0x81, 0x5e, 0x3c, 0x4c, 0x50, 0x68, 0x72, 0x08, 0xb1, 0x35, 0xe2, 0xb1, 0xc3, 0x00, 0x92, 0x81, 0x81, 0x45, 0x29, 0x51, 0xab, 0x71, 0x89, 0x6d, 0xd4, 0xbd, 0x85, 0x27, 0x57, 0xe4, 0x5b, 0x11, 0x48, 0x81, 0x42, 0x9e, 0xab, 0x35, 0x7f, 0x35, 0x39, 0x0a, 0x92, 0x8a, 0x27, 0x09, 0x63, 0xb2, 0xa9, 0x48, 0x7f, 0x59, 0xee, 0x37, 0xd9, 0x1c, 0xd3, 0xd9, 0x97, 0x7f, 0xe9, 0xef, 0x2e, 0x32, 0xbb, 0xbb, 0x8b, 0x34, 0xbe, 0x7f, 0x7f, 0xd9, 0x85, 0xe0, 0x79, 0x0d, 0xaf, 0x9c, 0x2e, 0xb6, 0x81, 0xd3, 0xcf, 0xd3, 0x24, 0x4c, 0xf0, 0x51, 0x2b, 0xa3, 0x96, 0xe0, 0x33, 0x18, 0x2f, 0x65, 0x7f, 0x7e, 0x1e, 0x7d, 0x10, 0x90, 0xe0, 0x3f, 0x59, 0x7f, 0x62, 0xca, 0x98, 0x81, 0x42, 0x9d, 0xbe, 0x24, 0x77, 0x6f, 0x25, 0x69, 0x46, 0x13, 0x81, 0xa4, 0x30, 0xad, 0x06, 0x00, 0x8e, 0xeb, 0x6e, 0x81, 0xbe, 0x34, 0xff, 0xd3, 0xfb, 0x86, 0x81, 0xd6, 0x21, 0x3e, 0xfd, 0x9b, 0xa3, 0xf4, 0x44, 0xd1, 0x6c, 0xb5, 0xb3, 0x82, 0x7f, 0x7f, 0xb1, 0x24, 0xfd, 0x44, 0x2e, 0x02, 0xb0, 0x55, 0xfe, 0x46, 0x15, 0x7f, 0x08, 0x9a, 0x17, 0x7a, 0x16, 0x2e, 0xab, 0x7f, 0x44, 0x5c, 0x0a, 0x30, 0x5e, 0x52, 0xdd, 0x3d, 0xbc, 0x61, 0x5e, 0x55, 0xb3, 0x7f, 0x36, 0x55, 0x11, 0x74, 0x3c, 0x68, 0x90, 0xcb, 0x20, 0x7f, 0x4d, 0xdb, 0x81, 0x3f, 0x7c, 0x7a, 0x59, 0x34, 0x56, 0x54, 0xd9, 0x15, 0x78, 0x0b, 0x81, 0x70, 0x13, 0xaf, 0x6c, 0xf2, 0x7f, 0x43, 0xf6, 0x45, 0x00, 0x46, 0x33, 0x81, 0xaa, 0x7e, 0x9c, 0x9b, 0xa3, 0x7a, 0xab, 0xff, 0x12, 0x29, 0xa7, 0x62, 0x68, 0x9e, 0x7f, 0x4c, 0x6e, 0x70, 0x81, 0x2e, 0x59, 0x7a, 0xa8, 0xe9, 0x39, 0x16, 0x30, 0x87, 0x5c, 0x2f, 0x32, 0x41, 0x7f, 0x66, 0xb5, 0x48, 0x49, 0xa3, 0xd4, 0xae, 0xc3, 0xd5, 0xda, 0x7f, 0xc8, 0x90, 0x8f, 0xa2, 0x0c, 0x81, 0x21, 0x3e, 0xc8, 0xf7, 0x81, 0xe3, 0x03, 0x06, 0x90, 0x92, 0x4e, 0x01, 0x8c, 0xd7, 0x81, 0x65, 0xae, 0x8e, 0x29, 0x97, 0xee, 0xb7, 0xf6, 0x7f, 0xeb, 0xd8, 0xa6, 0x69, 0x73, 0x19, 0x61, 0xb6, 0x67, 0x81, 0x54, 0x66, 0x58, 0xf8, 0x0c, 0x37, 0xec, 0x81, 0x90, 0x55, 0x54, 0x5f, 0xac, 0x04, 0x61, 0x57, 0x6f, 0x99, 0xd2, 0xb8, 0x24, 0x7f, 0x77, 0xc8, 0xba, 0xee, 0x7d, 0xce, 0x55, 0xb4, 0x81, 0x58, 0x21, 0x8d, 0xb8, 0xad, 0xa4, 0x67, 0x14, 0x81, 0x66, 0x1a, 0xb8, 0xb6, 0xcf, 0x79, 0x55, 0x3c, 0x7f, 0xa1, 0x33, 0x81, 0xcf, 0x07, 0xce, 0x52, 0x19, 0xa5, 0x06, 0xd5, 0xb9, 0xfe, 0x81, 0x99, 0x20, 0x07, 0xe8, 0xe2, 0x22, 0xd9, 0xca, 0xfd, 0x81, 0xd2, 0x0d, 0xec, 0x93, 0x81, 0x4a, 0x00, 0xf3, 0xf9, 0xfc, 0x71, 0x28, 0xf8, 0x45, 0x4d, 0x81, 0xf4, 0xdd, 0x4e, 0x67, 0xaa, 0x6b, 0x08, 0x0e, 0x63, 0xfb, 0x41, 0xad, 0x81, 0x08, 0xc7, 0x59, 0x81, 0x7b, 0xd9, 0xb0, 0x0f, 0xbe, 0xcf, 0xbb, 0xf8, 0x7f, 0x22, 0xaa, 0xc8, 0xf5, 0x8a, 0x10, 0x19, 0xf5, 0xdf, 0xeb, 0x2a, 0x10, 0x7f, 0x5a, 0xc6, 0xa1, 0xbd, 0xcb, 0x1c, 0xa1, 0x12, 0x43, 0x31, 0x7f, 0x38, 0x2c, 0xfa, 0xda, 0x7d, 0xd4, 0x78, 0xe9, 0x81, 0xe3, 0x01, 0xff, 0xe2, 0xe9, 0xce, 0x86, 0x81, 0xca, 0xea, 0x81, 0xfc, 0x3d, 0x16, 0x55, 0xfa, 0xc7, 0x6e, 0xc0, 0x22, 0xad, 0x5f, 0xfa, 0x09, 0x71, 0xa0, 0x89, 0x81, 0x7f, 0x51, 0xdc, 0x46, 0x4c, 0x31, 0x2e, 0x18, 0xde, 0x86, 0x73, 0xc6, 0xf1, 0x3f, 0x1b, 0x7f, 0x70, 0xe4, 0x57, 0x21, 0x57, 0x20, 0x87, 0xe4, 0x8f, 0x9a, 0x81, 0x81, 0x0e, 0x2a, 0x0f, 0x79, 0xdb, 0x30, 0xe5, 0x82, 0x18, 0x72, 0xdf, 0x1c, 0x74, 0xa4, 0x81, 0xa8, 0x3f, 0x0c, 0x1c, 0xf9, 0x7f, 0x8b, 0x2c, 0x99, 0x98, 0xb8, 0xa3, 0x2d, 0x81, 0xc0, 0xad, 0x28, 0xfd, 0xcf, 0x03, 0x56, 0xf2, 0xb1, 0x1a, 0x81, 0x03, 0x8b, 0xe5, 0xcd, 0xef, 0x39, 0xa0, 0x81, 0xf9, 0x96, 0x5c, 0x0f, 0x1f, 0x81, 0xe5, 0xa1, 0x98, 0x6c, 0x84, 0x55, 0x11, 0x3d, 0x40, 0x90, 0xb5, 0x3f, 0x81, 0xc9, 0x75, 0x46, 0x4e, 0x73, 0x67, 0x81, 0x99, 0xf8, 0xbd, 0x87, 0x7b, 0xa6, 0x66, 0x17, 0xb8, 0xbb, 0x7f, 0x08, 0x2a, 0xe0, 0x39, 0x3b, 0x70, 0xd1, 0x17, 0xf6, 0x42, 0x81, 0x42, 0x01, 0xb5, 0xda, 0x3d, 0xf9, 0x26, 0x86, 0x7f, 0xcf, 0x7c, 0x22, 0x82, 0xb5, 0x1b, 0x45, 0x37, 0x7f, 0x43, 0xcf, 0xfc, 0xbd, 0x0b, 0xba, 0xed, 0x39, 0x35, 0xbf, 0x7f, 0x7f, 0x44, 0xd0, 0xe4, 0x17, 0xb8, 0x67, 0x67, 0x27, 0x34, 0xbc, 0x38, 0x7f, 0x07, 0xfe, 0x2e, 0x19, 0xbd, 0x81, 0xd2, 0x6c, 0xf0, 0xf3, 0x0c, 0x08, 0xc6, 0xe9, 0xa9, 0x9f, 0x1b, 0xec, 0x1a, 0xf9, 0x66, 0x81, 0x4e, 0x3a, 0x7e, 0x72, 0x2a, 0x61, 0x03, 0x1f, 0x96, 0x7f, 0xc4, 0x94, 0x78, 0x81, 0x21, 0x3a, 0xd9, 0xb1, 0x99, 0xad, 0x96, 0x7f, 0xde, 0x67, 0x56, 0xc1, 0x8a, 0xd8, 0x1c, 0x49, 0x7f, 0x18, 0x66, 0x71, 0xf3, 0x5a, 0x12, 0xe0, 0x81, 0xd5, 0x21, 0x6b, 0x54, 0x06, 0x73, 0x8c, 0x42, 0x1c, 0x01, 0x8a, 0x05, 0x7f, 0x4c, 0xa5, 0x7a, 0x28, 0x94, 0x7f, 0xb3, 0x15, 0x9f, 0x42, 0x3f, 0x13, 0xd5, 0x2a, 0x5d, 0x89, 0x11, 0x81, 0xaa, 0x31, 0xe7, 0x08, 0xce, 0xfd, 0x60, 0x01, 0x75, 0xa3, 0x1c, 0x7f, 0x8a, 0x53, 0x4a, 0x4a, 0x8f, 0x29, 0x94, 0x17, 0x81, 0x01, 0x59, 0xea, 0x31, 0xbb, 0x04, 0xad, 0xc8, 0x81, 0xa0, 0x10, 0x4a, 0x81, 0xb2, 0x84, 0xc4, 0xd4, 0x21, 0xd2, 0x44, 0x33, 0x4c, 0x33, 0xc8, 0xc5, 0xa7, 0x81, 0x05, 0x97, 0x56, 0xbb, 0x7f, 0x92, 0x99, 0xd4, 0x8b, 0x1d, 0x87, 0x2a, 0x09, 0x81, 0x41, 0x50, 0x7f, 0xaf, 0x24, 0xd3, 0x81, 0xb8, 0x66, 0x42, 0x06, 0x6f, 0xe4, 0xc7, 0x9f, 0x38, 0x9b, 0xfa, 0x2c, 0x7f, 0x00, 0xbd, };
