
#define NNoutput &buffer0[5120];

/* sram:63328, flash:567040 */

static signed char buffer[63328];
static signed char *buffer0 = &buffer[0];
static signed char *buffer1 = &buffer[57344];
static int16_t *sbuf = (int16_t *)&buffer[57344];
static int32_t *kbuf = (int32_t *)&buffer[62464];
const int SBuffer_size = 5120;
const int KBuffer_size = 864;

const unsigned char weight0[432] = {0x10, 0xc9, 0x5b, 0x82, 0x7e, 0x9b, 0x31, 0xa0, 0x4d, 0xe0, 0x04, 0x7f, 0xc0, 0x1d, 0x67, 0x4b, 0x09, 0x8b, 0x8c, 0x99, 0xad, 0x60, 0x04, 0x9f, 0x69, 0x52, 0x23, 0x15, 0x95, 0x1a, 0x84, 0x68, 0x0e, 0xbf, 0xf5, 0xc0, 0x5d, 0x64, 0xb2, 0x3a, 0x4e, 0x89, 0x1b, 0x81, 0x74, 0x01, 0x9e, 0x7e, 0x6c, 0x6e, 0x21, 0x36, 0x1b, 0x53, 0xb5, 0x7f, 0xa0, 0x04, 0x22, 0x52, 0xa1, 0x1a, 0x13, 0x92, 0x97, 0xc8, 0xf1, 0x00, 0x22, 0x3f, 0x5f, 0x24, 0x12, 0xb9, 0x82, 0x31, 0xe8, 0x67, 0x18, 0xe8, 0xa7, 0x26, 0x62, 0xa3, 0x86, 0xad, 0x58, 0xec, 0x18, 0xf7, 0xbc, 0x6c, 0x83, 0x15, 0xca, 0x3f, 0x81, 0x91, 0x44, 0xaf, 0x24, 0x5c, 0xa2, 0x71, 0x23, 0x4b, 0x08, 0x86, 0xf7, 0x23, 0xb0, 0xf3, 0x83, 0xe4, 0x72, 0xaa, 0x7f, 0xc9, 0x29, 0x0d, 0x70, 0xe0, 0x35, 0xc1, 0xb2, 0x6d, 0x60, 0x55, 0xd4, 0x39, 0x8a, 0x22, 0xc0, 0x27, 0x60, 0x8f, 0xbe, 0x7f, 0xff, 0x75, 0x58, 0x3e, 0x27, 0x06, 0xb3, 0x12, 0x53, 0x95, 0x4d, 0xd7, 0x9a, 0xdc, 0xc3, 0x4a, 0xec, 0x44, 0x33, 0xdf, 0xe8, 0x56, 0x72, 0xc3, 0xa1, 0xa0, 0xc8, 0x5c, 0x44, 0x29, 0xf4, 0xe0, 0xad, 0x1f, 0x76, 0xc7, 0xa7, 0x19, 0xaa, 0x7f, 0xa6, 0x2b, 0xcb, 0xfd, 0x1d, 0xb8, 0xe9, 0x3e, 0xa1, 0x73, 0x9b, 0x7f, 0x62, 0x93, 0xbb, 0xd6, 0x36, 0xd3, 0x71, 0x82, 0xb2, 0x14, 0xab, 0x5b, 0x43, 0x94, 0xea, 0x12, 0x13, 0xa1, 0xe0, 0x71, 0xfc, 0x0d, 0x6c, 0xc2, 0x2d, 0xf8, 0x10, 0x19, 0xd0, 0x98, 0xdb, 0xee, 0x3b, 0x3d, 0x09, 0x1f, 0xff, 0x96, 0xb4, 0x88, 0xc9, 0xb9, 0xb2, 0x87, 0x24, 0x6a, 0x27, 0x3d, 0x9a, 0x7a, 0x2f, 0xa8, 0x81, 0xa1, 0x28, 0x3d, 0x48, 0x43, 0x18, 0x0b, 0x44, 0xb6, 0xe5, 0x6c, 0x7f, 0xdd, 0x0f, 0xea, 0xee, 0x10, 0x79, 0x6f, 0xad, 0x16, 0xa6, 0x11, 0x81, 0x95, 0x84, 0x05, 0x4a, 0x1e, 0xc3, 0x3e, 0xab, 0xab, 0x6c, 0x01, 0x84, 0x55, 0x48, 0x41, 0x66, 0x57, 0x4c, 0x54, 0x81, 0x0c, 0x70, 0xe6, 0x99, 0x23, 0x0b, 0x05, 0xb3, 0x42, 0x17, 0x73, 0x58, 0x22, 0xdb, 0x61, 0x8e, 0xc6, 0x6b, 0xdf, 0x7f, 0x3f, 0xef, 0x39, 0x9b, 0xa3, 0x2e, 0xd3, 0x5b, 0x13, 0x24, 0xf9, 0xf3, 0xc3, 0x6c, 0xf9, 0x76, 0xa0, 0x9a, 0x8f, 0x0b, 0x6a, 0x44, 0x63, 0xef, 0x7b, 0x81, 0xa9, 0xc5, 0x62, 0x9a, 0x76, 0xe0, 0x2d, 0x14, 0xff, 0x77, 0x4b, 0x70, 0x7a, 0x8a, 0x96, 0x09, 0x7c, 0x6b, 0xac, 0x50, 0x4e, 0xcc, 0x43, 0x8d, 0x88, 0x56, 0x9f, 0x44, 0xfc, 0xb0, 0x16, 0x37, 0xf6, 0x7f, 0x23, 0x2d, 0xd0, 0xfa, 0x53, 0x74, 0x91, 0xf6, 0x68, 0x10, 0x0e, 0xfb, 0x19, 0xe9, 0x81, 0x49, 0x4f, 0x95, 0x51, 0xa0, 0xfc, 0x42, 0x02, 0xc6, 0x5c, 0xac, 0x4c, 0x43, 0x0b, 0xc2, 0xc9, 0x92, 0x61, 0xf4, 0x44, 0x71, 0x4b, 0x68, 0x70, 0xa9, 0xac, 0xd0, 0xd9, 0x9e, 0x0d, 0xb9, 0x23, 0x16, 0x90, 0x12, 0xa7, 0xe1, 0x71, 0x66, 0x98, 0x82, 0x4b, 0x06, 0x26, 0x9b, 0x71, 0x7f, 0x50, 0xec, 0xa6, };
const int32_t bias0[16] = {-12088, -3825, -26196, -26965, -30219, 12255, -7240, -8633, 7100, 1576, 21854, 14880, -17814, 8333, 1341, 5453, };
const float scales0[16] = {0.0007273086635022381, 0.0006557548021084651, 0.0006835191885088953, 0.0007160532922305067, 0.0007205122969940494, 0.0007069159125631129, 0.0006917113652856537, 0.0007299882883084476, 0.000687924791334511, 0.0007311024261757941, 0.0006788278624940297, 0.000719630480378026, 0.0007393416719683535, 0.0007209451037260081, 0.0007337881556907196, 0.0007422691365377623, };
const int32_t shift0[16] = {-10, -10, -10, -10, -10, -10, -10, -10, -10, -10, -10, -10, -10, -10, -10, -10, };
const int32_t multiplier0[16] = {1599368665, 1442020060, 1503074591, 1574617842, 1584423297, 1554524531, 1521089378, 1605261222, 1512762614, 1607711237, 1492758256, 1582484162, 1625829530, 1585375049, 1613617219, 1632267093, };
const unsigned char CHWweight1[16] = {0x81, 0x81, 0x81, 0x7f, 0x7f, 0x81, 0x7f, 0x7f, 0x81, 0x7f, 0x81, 0x7f, 0x7f, 0x7f, 0x7f, 0x7f, };
const int32_t offsetBias1[16] = {-16575, -28736, -77638, -2562, 16240, -24556, 20776, -12539, -7590, -1647, -10175, 17779, 23087, 16609, -1895, -26733, };
const int32_t offsetRBias1[16] = {0, 0, 0, 0, 0, 0, 0, 0, 0, 0, 0, 0, 0, 0, 0, 0, };
const float scales1[16] = {0.0046881142253217874, 0.0026576823160710393, 0.00047604195298762015, 0.0037534338346809043, 0.004779445762706087, 0.0017850405563061525, 0.003957827824150582, 0.0024744983407399288, 0.0016767561566393787, 0.00472638354199263, 0.0038401644655429684, 0.002769352340326168, 0.00192610366612822, 0.004338353091596204, 0.004217435440702717, 0.002402619102608677, };
const int32_t shift1[16] = {-7, -8, -11, -8, -7, -9, -7, -8, -9, -7, -8, -8, -9, -7, -7, -8, };
const int32_t multiplier1[16] = {1288659026, 1461076305, 2093654650, 2063472073, 1313764048, 1962672848, 1087919428, 1360369849, 1843612891, 1299178415, 2111152741, 1522467550, 2117773377, 1192517417, 1159279827, 1320853820, };
const unsigned char weight2[128] = {0x81, 0x84, 0x25, 0x62, 0x95, 0xb1, 0x3c, 0x16, 0xfe, 0xb5, 0x62, 0xdc, 0x38, 0xe3, 0x94, 0x69, 0x81, 0x40, 0x85, 0xa5, 0x7f, 0xa7, 0x27, 0x2b, 0x85, 0xec, 0x5f, 0xf7, 0x0d, 0x61, 0xba, 0xcd, 0x8b, 0xba, 0xb1, 0x7f, 0x92, 0xb9, 0xc6, 0xf0, 0x7d, 0x2b, 0x75, 0xcf, 0xf8, 0xe1, 0x0d, 0x25, 0x29, 0x5f, 0x89, 0x27, 0xa0, 0x90, 0xb7, 0x2d, 0xb0, 0xfe, 0x4c, 0xd5, 0x43, 0x7f, 0xde, 0xc3, 0x0b, 0x44, 0x47, 0x62, 0x7f, 0xc9, 0x51, 0x11, 0x0d, 0x48, 0x4b, 0x05, 0x0b, 0xb5, 0xb9, 0xe6, 0x76, 0xde, 0x81, 0x2a, 0xfa, 0xb7, 0xf0, 0x73, 0xce, 0xcf, 0xd2, 0x3f, 0x49, 0x12, 0x31, 0x61, 0x49, 0x33, 0xe5, 0xc6, 0x6d, 0x29, 0x10, 0x53, 0x2a, 0x7f, 0xad, 0x6b, 0x92, 0x29, 0x28, 0xe8, 0x94, 0x01, 0x8b, 0x19, 0x62, 0x0f, 0x21, 0x8f, 0xbe, 0xc7, 0xa6, 0x16, 0x81, 0x11, 0xe8, 0xad, };
const int32_t bias2[8] = {-7114, -592, 3777, 8367, -5070, -7157, -2813, 3642, };
const float scales2[8] = {0.0036205586650551193, 0.003797401105075262, 0.0033660012529130603, 0.0033934329845620517, 0.0038748551900567216, 0.00349087249428919, 0.0038167333933531076, 0.003808887717843057, };
const int32_t shift2[8] = {-8, -8, -8, -8, -8, -8, -8, -8, };
const int32_t multiplier2[8] = {1990423176, 2087643335, 1850478758, 1865559512, 2130224169, 1919127449, 2098271373, 2093958167, };
const unsigned char weight3[384] = {0x54, 0x7d, 0x0f, 0x81, 0x06, 0x8a, 0x8d, 0x6a, 0x56, 0x3a, 0x09, 0x52, 0x57, 0x81, 0x30, 0x58, 0x7f, 0x8f, 0x3d, 0x84, 0xef, 0x6e, 0xbd, 0x01, 0x81, 0x88, 0x8f, 0x1f, 0x17, 0xca, 0xa7, 0x07, 0xc1, 0x18, 0xc0, 0x5a, 0x61, 0x7f, 0xb8, 0xf5, 0x90, 0xa3, 0xa6, 0xca, 0x7f, 0x22, 0x93, 0x0e, 0x14, 0xda, 0x34, 0x7f, 0x02, 0x7a, 0xbe, 0x3d, 0x7f, 0x97, 0x37, 0xb8, 0x32, 0xaa, 0x44, 0xae, 0x6e, 0xd3, 0xb3, 0x78, 0x89, 0xfe, 0x61, 0x81, 0x81, 0x73, 0x57, 0x81, 0x85, 0x5c, 0x2b, 0x2e, 0x74, 0x3a, 0x1e, 0x83, 0x7f, 0x7e, 0x8b, 0xee, 0xd5, 0x3d, 0xaf, 0xcc, 0x42, 0x7f, 0xe0, 0x52, 0x81, 0x76, 0xdf, 0xe9, 0xe4, 0x23, 0xe6, 0xee, 0x7f, 0x70, 0xf2, 0x3b, 0x66, 0x03, 0xab, 0xfe, 0x57, 0x07, 0x20, 0x76, 0x81, 0x16, 0x29, 0xa6, 0x4d, 0x81, 0xe7, 0x2b, 0x6b, 0x15, 0x7b, 0x66, 0xea, 0x67, 0x53, 0x91, 0x1f, 0x94, 0x7f, 0xd1, 0x3c, 0xae, 0x41, 0x24, 0x64, 0x15, 0xb2, 0x7f, 0x81, 0xfe, 0x0b, 0x7b, 0x39, 0x05, 0x44, 0x18, 0x1f, 0xaf, 0x0e, 0xdc, 0x7d, 0x0d, 0x81, 0x7c, 0xae, 0xfa, 0x40, 0xb0, 0xdc, 0x81, 0x76, 0xef, 0x7f, 0x67, 0x28, 0xbf, 0xc7, 0x3b, 0xd4, 0x47, 0x0c, 0x6f, 0xa6, 0x7f, 0xad, 0x31, 0x41, 0x1a, 0xa7, 0x33, 0x74, 0x40, 0x58, 0x11, 0x7f, 0xc6, 0xe2, 0x60, 0x11, 0x88, 0x7f, 0x27, 0x18, 0xaf, 0xe4, 0x2d, 0x9c, 0x69, 0xf8, 0x10, 0x81, 0xfa, 0x43, 0x62, 0xb5, 0x55, 0xa7, 0x4f, 0x81, 0x9a, 0x09, 0x42, 0x54, 0xda, 0x78, 0x56, 0x81, 0xc0, 0x8a, 0x9d, 0x7f, 0xe7, 0x70, 0xd6, 0x8e, 0x11, 0xba, 0x75, 0x8b, 0x81, 0x40, 0x35, 0xe5, 0x9b, 0x99, 0xa4, 0x7f, 0x2b, 0x29, 0x71, 0x3e, 0x7d, 0x7e, 0x36, 0x7f, 0x71, 0x17, 0x49, 0xe3, 0x8d, 0xc3, 0x0b, 0x81, 0xac, 0x9c, 0xbb, 0x79, 0x16, 0x81, 0xa8, 0x5e, 0xd8, 0xe5, 0xa8, 0x22, 0xd6, 0x81, 0xc9, 0x42, 0xef, 0x6a, 0x72, 0x0e, 0xc7, 0x54, 0xd6, 0x35, 0xd6, 0xc4, 0x95, 0x81, 0x0d, 0x11, 0x12, 0x21, 0x08, 0xeb, 0x8c, 0x81, 0x7d, 0x20, 0xd3, 0x40, 0x1c, 0x32, 0xb3, 0xfe, 0x81, 0x81, 0xc2, 0x3c, 0x6e, 0x5c, 0x95, 0x8f, 0xa0, 0x13, 0x46, 0xda, 0x7f, 0xea, 0x49, 0xed, 0xf4, 0x8d, 0xf3, 0x7f, 0x38, 0xc0, 0xd6, 0xe7, 0x30, 0x72, 0x66, 0xff, 0x81, 0xbc, 0xaa, 0xf5, 0x1b, 0x66, 0xca, 0xfb, 0x81, 0xf2, 0x18, 0x43, 0x39, 0xee, 0x15, 0x1b, 0x5d, 0xd2, 0x68, 0x7f, 0x62, 0xce, 0xcd, 0xa3, 0x31, 0x7f, 0xab, 0xdc, 0xa7, 0x1d, 0xeb, 0x0c, 0x8f, 0xfc, 0x81, 0x06, 0xbb, 0xb1, 0x56, 0x25, 0x81, 0xca, 0xb3, 0x05, 0xdd, 0x42, 0x8b, 0x4f, 0x68, 0x3c, 0x8f, 0x81, 0xad, };
const int32_t bias3[48] = {8372, -2278, -17936, 6278, -16821, -26544, 19268, 730, -11389, 12580, -2657, -15280, 2884, -20609, -5976, -15588, -21217, -5196, 14017, 24325, -11856, -19174, -17373, -16137, -383, 21013, 1216, 16472, 3443, 2776, 14935, -17882, -9696, -9099, -1414, -26334, -17529, -15382, 9296, 1359, -3511, 12271, 19029, 346, -5540, -3336, 238, 7350, };
const float scales3[48] = {0.0025702246536971033, 0.0024828251992743446, 0.002555370289097232, 0.0022257743791756768, 0.00249102735077478, 0.0018458117772773277, 0.0023173727658199164, 0.0017868765069215128, 0.0026745833440210615, 0.0023737581375160226, 0.002372495124648716, 0.0021341286971137954, 0.0026598069042521617, 0.0025980706190905883, 0.0025126114028725098, 0.0022220614636745324, 0.0024965332130370923, 0.002621974849248053, 0.0020015317146462016, 0.0021454683365340686, 0.0026257312314901726, 0.0022669930112992026, 0.0026918015786379177, 0.0026094296271104668, 0.002667858836497516, 0.002438407820404322, 0.0023308805623146476, 0.0023158352143140136, 0.002333972331330765, 0.0026379156571560355, 0.002688550131283191, 0.002610300313227622, 0.0026200656908892516, 0.0022615238592896313, 0.0023838392683944785, 0.0017327816973450468, 0.0017638626693052208, 0.0025343632410947305, 0.002515925009918994, 0.0023124409798412644, 0.0024270091743201342, 0.0025464888853129527, 0.002622857471827756, 0.002524105540657079, 0.0026489544076335977, 0.002454268000886039, 0.002544703370688843, 0.0024988772640219224, };
const int32_t shift3[48] = {-8, -8, -8, -8, -8, -9, -8, -9, -8, -8, -8, -8, -8, -8, -8, -8, -8, -8, -8, -8, -8, -8, -8, -8, -8, -8, -8, -8, -8, -8, -8, -8, -8, -8, -8, -9, -9, -8, -8, -8, -8, -8, -8, -8, -8, -8, -8, -8, };
const int32_t multiplier3[48] = {1412995946, 1364947588, 1404829673, 1223632405, 1369456769, 2029491512, 1273989151, 1964691497, 1470367743, 1304987337, 1304292988, 1173249659, 1462244309, 1428304428, 1381322727, 1221591208, 1372483648, 1441445917, 1100353697, 1179483692, 1443511010, 1246292588, 1479833568, 1434549108, 1466670906, 1340528876, 1281415141, 1273143873, 1283114859, 1450209469, 1478046066, 1435027773, 1440396346, 1243285890, 1310529497, 1905213625, 1939387515, 1393280926, 1383144402, 1271277873, 1334262404, 1399947070, 1441931144, 1387641696, 1456278086, 1349248102, 1398965473, 1373772304, };
const unsigned char CHWweight4[432] = {0xb3, 0xe0, 0x8f, 0x99, 0xc5, 0x7f, 0xca, 0x7b, 0xb9, 0x32, 0x7e, 0x38, 0xb6, 0x7f, 0xce, 0x61, 0x81, 0x4d, 0xba, 0x1f, 0xd5, 0xa6, 0x19, 0xf0, 0x4d, 0x7c, 0x81, 0x85, 0xfe, 0x6d, 0x33, 0x81, 0x38, 0xe4, 0xdb, 0xfa, 0x2f, 0xc6, 0xa6, 0xfc, 0x05, 0x81, 0x44, 0xe6, 0x52, 0x45, 0x23, 0x50, 0x63, 0xc6, 0x13, 0xfb, 0x81, 0x16, 0xf6, 0x0f, 0xb7, 0x84, 0xef, 0xc6, 0x5d, 0x7f, 0x76, 0x6e, 0x88, 0x96, 0xd4, 0x11, 0xfb, 0x81, 0x7f, 0xf5, 0x77, 0x37, 0x1b, 0x1c, 0x8e, 0x3f, 0xc9, 0xc2, 0x7f, 0x81, 0xae, 0xd6, 0x89, 0x01, 0x12, 0x0e, 0x34, 0x89, 0x57, 0xdc, 0xc3, 0x83, 0xa5, 0x81, 0x08, 0xca, 0x09, 0xfe, 0x24, 0xd0, 0x70, 0x19, 0xa2, 0xed, 0xe6, 0x7f, 0x3c, 0x03, 0x5b, 0xd6, 0x9e, 0x81, 0x63, 0x8b, 0xfa, 0xc3, 0x87, 0x8c, 0x34, 0x1b, 0x7f, 0xbb, 0x1b, 0xd1, 0x6f, 0x27, 0x2c, 0xcc, 0x7f, 0x73, 0xb5, 0xd9, 0x9f, 0x79, 0x20, 0x81, 0x4c, 0x90, 0x45, 0xa9, 0x87, 0x1e, 0x49, 0xaf, 0xa2, 0x05, 0xcb, 0x7d, 0x29, 0x81, 0xcf, 0x66, 0x75, 0xef, 0x81, 0x08, 0x2b, 0xab, 0x08, 0x89, 0xeb, 0xdd, 0xd3, 0xdc, 0xdb, 0x81, 0x63, 0x87, 0x96, 0x7f, 0xae, 0xef, 0xc2, 0x71, 0xff, 0xc2, 0x2d, 0x56, 0xf8, 0xda, 0xe1, 0x7f, 0xcc, 0x00, 0x3f, 0xdb, 0x83, 0x81, 0x5a, 0x59, 0x75, 0x74, 0x92, 0x30, 0x6e, 0x75, 0x81, 0x2e, 0x9f, 0xdc, 0x67, 0x22, 0x5d, 0x42, 0xd7, 0x4d, 0x7d, 0x7f, 0xfd, 0x4e, 0x03, 0x04, 0x4e, 0x75, 0x5c, 0x81, 0x8b, 0x92, 0x7b, 0xb1, 0x4a, 0x99, 0x66, 0x35, 0x17, 0xa8, 0x81, 0x6d, 0x5c, 0x45, 0x1e, 0x07, 0x06, 0x55, 0x81, 0x05, 0x8f, 0xb4, 0xe0, 0xa8, 0x73, 0x8e, 0xd0, 0x5d, 0x72, 0x2b, 0xde, 0x0f, 0x13, 0x7f, 0x86, 0x7f, 0x11, 0xda, 0xdc, 0x9a, 0xb4, 0xa5, 0xc8, 0xdd, 0x86, 0x1a, 0x91, 0xd3, 0x5d, 0x5c, 0x04, 0x81, 0xd8, 0x36, 0x3d, 0xbc, 0xb7, 0xc9, 0x45, 0x7f, 0xb9, 0x45, 0xc9, 0x2b, 0x73, 0x88, 0x81, 0xf9, 0x6e, 0x90, 0xb6, 0x0a, 0x81, 0x1d, 0xd8, 0xe6, 0x59, 0x4f, 0x0c, 0x7f, 0x71, 0x59, 0x25, 0xe3, 0xea, 0x73, 0xc6, 0xd5, 0x29, 0xc8, 0xd3, 0x81, 0xbd, 0x27, 0x9a, 0xf0, 0xd1, 0x26, 0x1e, 0x14, 0x39, 0x1a, 0x0c, 0x9e, 0xeb, 0x81, 0xbf, 0xec, 0xcc, 0xb1, 0x73, 0x50, 0x07, 0x81, 0x18, 0x19, 0x06, 0xaa, 0x06, 0xa1, 0x72, 0x66, 0x81, 0x8a, 0xfe, 0x81, 0x49, 0xc1, 0x03, 0x75, 0x17, 0xb8, 0x70, 0xfc, 0xea, 0xc7, 0x7f, 0xb5, 0x50, 0x91, 0x62, 0xb4, 0x9b, 0x81, 0x8a, 0x1b, 0x77, 0x8a, 0xd1, 0x70, 0x1a, 0x81, 0x70, 0x66, 0xce, 0x37, 0xde, 0x69, 0x1a, 0x45, 0xcb, 0xa1, 0xf3, 0x71, 0x57, 0x94, 0x81, 0x15, 0x22, 0x41, 0x98, 0xcc, 0x4a, 0x7f, 0x3a, 0x0c, 0x11, 0xa9, 0x7c, 0x32, 0x10, 0xbf, 0xc2, 0xe5, 0x81, 0x37, 0xeb, 0x02, 0x23, 0x47, 0x4f, 0xa2, 0x3c, 0x1d, 0x60, 0x7f, 0xba, 0x36, 0xf8, 0x26, 0xae, 0xca, 0x7f, 0x36, 0x57, 0xbc, 0x2b, 0xa1, 0x81, 0x62, 0xe8, 0xc1, 0x89, 0x92, };
const int32_t offsetBias4[48] = {-14037, -2495, 12191, 13451, 8930, -3898, -20576, -12828, 1429, 11881, 7033, -17732, -13073, 17619, -16414, -1270, -2119, -118, -4827, -16175, -17874, 9353, 4096, -4923, -12379, 2007, 6953, -8054, 8352, -2740, -2380, 7850, 17905, 4911, 9011, 16561, -16054, -11966, 5908, 1321, 19034, 1391, -14130, -5643, 23700, -7030, -15124, -738, };
const int32_t offsetRBias4[48] = {0, 0, 0, 0, 0, 0, 0, 0, 0, 0, 0, 0, 0, 0, 0, 0, 0, 0, 0, 0, 0, 0, 0, 0, 0, 0, 0, 0, 0, 0, 0, 0, 0, 0, 0, 0, 0, 0, 0, 0, 0, 0, 0, 0, 0, 0, 0, 0, };
const float scales4[48] = {0.0030259490509685336, 0.0032573280723565898, 0.003216765952128717, 0.0031559220422786123, 0.0031710351197279272, 0.002959353114112697, 0.002889279173508822, 0.0031166003779558413, 0.0029369790946999264, 0.0029220390566182253, 0.003047423148948386, 0.003229731940763696, 0.0032799927278741544, 0.003195028939359286, 0.0029144253244432266, 0.0031269307990220417, 0.0026841817097657686, 0.0030309377204942034, 0.0031650651156435988, 0.002958236966421091, 0.00300893545850865, 0.002673427006675099, 0.0032368070040135434, 0.0031783658026844006, 0.002675799075847664, 0.0029764466606817305, 0.0029779506149830467, 0.0031410100173154456, 0.0032403564995745074, 0.003001215509925875, 0.0032590141119283795, 0.003167281070040998, 0.00316520985008936, 0.0024053935491930617, 0.0031036446024369944, 0.003214305466550778, 0.0032792095277684634, 0.0031151903843229427, 0.003245719552757257, 0.002788130805760698, 0.0032070240983550573, 0.0031701553327239556, 0.002850726119125839, 0.0028660525048006605, 0.0025303199480188345, 0.0026717505966128057, 0.0031537154255873914, 0.00297406496199967, };
const int32_t shift4[48] = {-8, -8, -8, -8, -8, -8, -8, -8, -8, -8, -8, -8, -8, -8, -8, -8, -8, -8, -8, -8, -8, -8, -8, -8, -8, -8, -8, -8, -8, -8, -8, -8, -8, -8, -8, -8, -8, -8, -8, -8, -8, -8, -8, -8, -8, -8, -8, -8, };
const int32_t multiplier4[48] = {1663533083, 1790735046, 1768435784, 1734986491, 1743294993, 1626921580, 1588398024, 1713369177, 1614621333, 1606407960, 1675338594, 1775563912, 1803195072, 1756485735, 1602222266, 1719048386, 1475644500, 1666275633, 1740012949, 1626307971, 1654179762, 1469732040, 1779453469, 1747325079, 1471036099, 1636318856, 1637145664, 1726788518, 1781404825, 1649935675, 1791661956, 1741231182, 1740092517, 1322379088, 1706246664, 1767083118, 1802764503, 1712594025, 1784353194, 1532791120, 1763080143, 1742811325, 1567203258, 1575629027, 1391058102, 1468810424, 1733773391, 1635009504, };
const unsigned char weight5[384] = {0xc2, 0x09, 0x87, 0x27, 0xa3, 0x28, 0xba, 0x67, 0xdc, 0xde, 0x01, 0x81, 0xc7, 0xc2, 0x8f, 0x42, 0x12, 0xc9, 0x95, 0x86, 0xc3, 0x53, 0xe1, 0x21, 0x6e, 0x47, 0x79, 0x1e, 0xe9, 0xfc, 0xdd, 0x76, 0x99, 0xc0, 0xf7, 0x4b, 0x37, 0xa5, 0x5b, 0xc0, 0x0f, 0xb9, 0x65, 0x84, 0x20, 0x5a, 0xdf, 0xde, 0x19, 0x1d, 0x7b, 0xc8, 0x01, 0x35, 0xca, 0xf9, 0xcf, 0xd3, 0x5f, 0x9a, 0x05, 0xaf, 0x98, 0x7d, 0x46, 0xe1, 0x1e, 0xee, 0x3f, 0x81, 0xbe, 0xc0, 0x0c, 0x08, 0xab, 0x34, 0x46, 0x1b, 0xd6, 0xe2, 0xd6, 0x6c, 0x78, 0xa8, 0x77, 0xaa, 0xe8, 0x4e, 0xed, 0x81, 0x08, 0x3c, 0x78, 0xbd, 0xf3, 0x52, 0x73, 0xe3, 0x9b, 0x0d, 0xe7, 0x70, 0x3c, 0xf0, 0xbc, 0x97, 0x43, 0x48, 0x99, 0xe6, 0x8b, 0x5f, 0xad, 0x46, 0xfb, 0xaa, 0x40, 0xa2, 0xae, 0x1d, 0x07, 0xf4, 0x81, 0x22, 0x8e, 0x46, 0x5a, 0x57, 0xed, 0xf3, 0xdc, 0xea, 0x2a, 0x55, 0x0d, 0x4f, 0xfb, 0xe6, 0xf6, 0x2b, 0xee, 0xd3, 0x21, 0xe2, 0xa2, 0x6a, 0x24, 0x08, 0x56, 0x7a, 0xee, 0x07, 0x90, 0x3b, 0xd8, 0xc7, 0x7e, 0x48, 0xe8, 0xba, 0xfb, 0xb1, 0x23, 0xac, 0xab, 0xd6, 0xaa, 0x2d, 0x76, 0x9d, 0x04, 0x92, 0xc0, 0xe5, 0xb4, 0x5f, 0x23, 0x22, 0x78, 0x2a, 0x6a, 0xb7, 0x0a, 0xe1, 0x25, 0xdf, 0x11, 0xf2, 0x7f, 0x3f, 0xcf, 0x6c, 0x99, 0x23, 0x38, 0x72, 0x7f, 0xe0, 0x64, 0x2d, 0x2a, 0x10, 0xeb, 0xc9, 0x94, 0x1c, 0x8a, 0x38, 0xe0, 0xd2, 0xec, 0x1f, 0x99, 0x0f, 0xca, 0xdf, 0xa9, 0xd7, 0xda, 0xa5, 0x15, 0xd3, 0x7b, 0x25, 0xf9, 0xc3, 0xe0, 0x57, 0xd4, 0xc4, 0x57, 0x46, 0x9a, 0xbd, 0x6f, 0x31, 0x63, 0x25, 0x2a, 0x06, 0x1f, 0x83, 0x82, 0x78, 0x51, 0x7f, 0x9e, 0xaa, 0x48, 0x12, 0xe9, 0x67, 0x61, 0x08, 0xd2, 0x69, 0xd6, 0xff, 0x25, 0xf3, 0xb6, 0xd2, 0xeb, 0x84, 0x6b, 0x5d, 0x1b, 0xd6, 0x2c, 0x67, 0x0c, 0xa1, 0xa4, 0xc7, 0xaa, 0x44, 0x7c, 0x91, 0xaf, 0x56, 0x00, 0x7e, 0x9b, 0x6c, 0x9d, 0x43, 0x71, 0x79, 0x85, 0xc6, 0xb5, 0x70, 0xbd, 0xd4, 0xc6, 0x84, 0x1a, 0x46, 0x86, 0xb0, 0x85, 0x22, 0xb7, 0x1f, 0x7e, 0x90, 0xb5, 0xd6, 0xb3, 0xb5, 0x4d, 0x7f, 0x4e, 0xd5, 0x07, 0x61, 0xaa, 0xa2, 0xf0, 0x2b, 0x66, 0xd0, 0xc4, 0xee, 0x0b, 0x63, 0xec, 0xa6, 0x6e, 0x59, 0x46, 0x40, 0xd7, 0x9d, 0xb2, 0xfe, 0xbe, 0xfa, 0xdb, 0x26, 0x05, 0x3f, 0x25, 0x11, 0xbf, 0xff, 0x53, 0x98, 0x4f, 0x19, 0x6a, 0xb5, 0x7d, 0x4e, 0x52, 0x85, 0x87, 0x36, 0x95, 0x27, 0x9f, 0x5a, 0x6f, 0x0b, 0x2e, 0xa4, 0xf8, 0x6f, 0x90, 0x10, 0xe5, 0x1b, 0x8d, 0xfc, 0xd6, 0x14, 0x31, 0xd3, 0xbb, 0x54, 0xce, 0xeb, 0x66, 0x81, };
const int32_t bias5[8] = {11978, -6959, -11565, 8105, 17519, -9345, 12483, 16107, };
const float scales5[8] = {0.0021500962171185005, 0.002226568399876725, 0.002201267275071257, 0.002173012046083479, 0.0021651809412730643, 0.0022254602397471157, 0.0022143352528288074, 0.002170271216486179, };
const int32_t shift5[8] = {-8, -8, -8, -8, -8, -8, -8, -8, };
const int32_t multiplier5[8] = {1182027896, 1224068923, 1210159482, 1194626006, 1190320811, 1223459705, 1217343679, 1193119219, };
const unsigned char weight6[384] = {0x1d, 0xb5, 0x11, 0x7f, 0x85, 0xd3, 0x76, 0xd0, 0x8e, 0x9c, 0x7f, 0x86, 0xd0, 0xd8, 0xa9, 0xf7, 0xb2, 0x7f, 0xc6, 0x8d, 0x4d, 0x17, 0x22, 0x0d, 0x94, 0xa8, 0x48, 0x81, 0xaa, 0x51, 0xef, 0x46, 0xe2, 0x64, 0x0d, 0x38, 0xf0, 0x81, 0x13, 0x96, 0x20, 0xd0, 0xdd, 0x97, 0xbb, 0x81, 0x05, 0x0f, 0x0b, 0x03, 0x4c, 0x81, 0x65, 0x1e, 0x8e, 0x1a, 0x85, 0xac, 0x4d, 0x2e, 0x81, 0xdd, 0x04, 0x93, 0x81, 0x94, 0x8a, 0xd0, 0x73, 0xfa, 0x0f, 0xbe, 0x97, 0xa0, 0x25, 0x77, 0xed, 0x42, 0xa0, 0x81, 0x59, 0x2e, 0x5a, 0xa2, 0xa2, 0x3a, 0x81, 0x0b, 0x81, 0x86, 0x09, 0xa2, 0xd2, 0x00, 0x8d, 0x42, 0x18, 0xf2, 0x41, 0x15, 0xd0, 0x7b, 0xa9, 0x81, 0x8a, 0x2b, 0xe8, 0xfa, 0x81, 0x59, 0x05, 0x0b, 0x26, 0x31, 0x99, 0xb9, 0x81, 0x78, 0x4d, 0x4e, 0x1a, 0x81, 0x44, 0x9a, 0xd0, 0x98, 0xc8, 0x86, 0x2e, 0x2e, 0xb1, 0xd7, 0x84, 0x9c, 0xfb, 0x81, 0x76, 0xad, 0x7f, 0x7d, 0xd1, 0x66, 0xe6, 0x34, 0x51, 0x6a, 0x0a, 0x28, 0xa1, 0x23, 0x81, 0x85, 0x19, 0x46, 0x7f, 0xe6, 0xd3, 0xbc, 0x39, 0x35, 0xcf, 0x86, 0x09, 0x3a, 0x7f, 0x8c, 0xce, 0xe7, 0x6e, 0x72, 0xb8, 0x7f, 0xec, 0x17, 0xd9, 0x9b, 0x1d, 0x5a, 0xb1, 0x2b, 0x2d, 0x81, 0x7b, 0xbd, 0x95, 0x7f, 0xd8, 0x05, 0xc5, 0xb8, 0x13, 0xae, 0x75, 0x82, 0x40, 0x7f, 0x96, 0x32, 0xa3, 0x32, 0x67, 0x0b, 0x11, 0x76, 0x7f, 0xae, 0x08, 0x69, 0x7f, 0x4b, 0xdb, 0x54, 0xba, 0xb2, 0x92, 0xaa, 0x52, 0x43, 0x11, 0x81, 0xc9, 0x0f, 0x51, 0x79, 0x38, 0x81, 0x16, 0x7e, 0x28, 0x0c, 0x92, 0x0f, 0x65, 0xbf, 0xbf, 0x13, 0x81, 0xa8, 0xdc, 0x3e, 0x65, 0x1f, 0x83, 0xaa, 0x87, 0xeb, 0xf1, 0x81, 0x8d, 0xa9, 0x79, 0x4e, 0x7f, 0x24, 0xb6, 0x0a, 0x7f, 0xf4, 0x84, 0x06, 0xc8, 0x6b, 0xfa, 0x42, 0xeb, 0x44, 0xee, 0x81, 0x5e, 0x7e, 0xec, 0xd8, 0x81, 0x24, 0xc9, 0xb9, 0x07, 0x31, 0xec, 0x69, 0x7f, 0x4f, 0xc8, 0xed, 0xa5, 0x54, 0x96, 0x7f, 0xd2, 0x49, 0xf1, 0xc9, 0x40, 0x2b, 0xc9, 0x7f, 0xe7, 0x7f, 0x40, 0x01, 0xda, 0x34, 0xab, 0x50, 0x81, 0x8d, 0xc9, 0xe0, 0x8f, 0xac, 0xae, 0xd8, 0x15, 0x05, 0x8d, 0x55, 0x22, 0xe2, 0x7f, 0x2a, 0x61, 0xd1, 0x2b, 0x2a, 0xbc, 0xd5, 0x7f, 0x54, 0xdb, 0xe0, 0x56, 0x7f, 0x6e, 0xce, 0xad, 0x48, 0x2d, 0x06, 0x82, 0x7f, 0xef, 0xad, 0x41, 0x7d, 0x56, 0x6c, 0x51, 0x7f, 0xe5, 0x70, 0xbc, 0xd9, 0x22, 0x9f, 0x81, 0x51, 0xba, 0x54, 0x96, 0x30, 0x81, 0xe6, 0x57, 0x1e, 0x89, 0x49, 0xfe, 0xea, 0x1d, 0xf5, 0x7e, 0x81, 0xe8, 0xbd, 0xd7, 0x21, 0xad, 0x71, 0xa6, 0xf2, 0x7f, 0xbd, 0x0b, 0xcf, };
const int32_t bias6[48] = {47371, -16323, 14777, 19756, -51117, -54163, -21195, 40274, 13401, 18723, 19193, -33688, -43359, 27924, -51333, 5536, -12336, -63181, 3616, 25099, 705, -27623, 32315, 25926, -51022, -51091, 23259, 13885, 39302, -48008, 45909, 27021, -47068, 16793, -36100, -27986, -50676, -22006, -40451, 6535, 7705, -36930, 4078, 28069, -38935, 25197, -26772, 29522, };
const float scales6[48] = {0.001573694878068837, 0.00169774235118806, 0.001586050155616476, 0.0016810892000492027, 0.0015363883507671856, 0.0014640993876933151, 0.0016618675421150874, 0.001499626606203823, 0.0012196320333686128, 0.0015396551868933734, 0.0016471439550537418, 0.0015929135308972249, 0.001671813440370746, 0.0015712671819419469, 0.0014547722550169477, 0.0016592340677960094, 0.0015031584640351095, 0.0013097179480612837, 0.0014988880656962556, 0.001678824924433772, 0.0016757877642453183, 0.0016584963858900783, 0.001690830608015128, 0.0014977693077640405, 0.0015805133198639482, 0.0016317977387057415, 0.0014009496666377156, 0.0014008085697688024, 0.0017050523424200041, 0.001671980295288751, 0.0016487840272795178, 0.0014813622890942815, 0.0016608511008778756, 0.0016748578986731089, 0.0016996309885875707, 0.0016953741847746263, 0.0012530957459463323, 0.0017064789090388646, 0.0015769083377932959, 0.0016924477841972667, 0.0013834268951414689, 0.0016995186548734763, 0.0014841418687918185, 0.0011979946997305168, 0.001589137830201204, 0.0014531318965906263, 0.0014429578965002338, 0.0015060153178799215, };
const int32_t shift6[48] = {-9, -9, -9, -9, -9, -9, -9, -9, -9, -9, -9, -9, -9, -9, -9, -9, -9, -9, -9, -9, -9, -9, -9, -9, -9, -9, -9, -9, -9, -9, -9, -9, -9, -9, -9, -9, -9, -9, -9, -9, -9, -9, -9, -9, -9, -9, -9, -9, };
const int32_t multiplier6[48] = {1730295817, 1866687456, 1743880588, 1848377123, 1689276856, 1609794301, 1827242686, 1648856891, 1340999602, 1692868781, 1811053931, 1751426949, 1838178317, 1727626537, 1599539010, 1824347151, 1652740210, 1440050113, 1648044857, 1845887525, 1842548132, 1823536061, 1859087914, 1646814770, 1737792773, 1794180588, 1540360448, 1540205311, 1874724876, 1838361776, 1812857210, 1628775062, 1826125097, 1841525734, 1868764035, 1864083630, 1377793343, 1876293403, 1733829053, 1860866018, 1521093957, 1868640523, 1631831242, 1317209102, 1747275522, 1597735417, 1586548986, 1655881354, };
const unsigned char CHWweight7[432] = {0x1a, 0xd0, 0x3e, 0x09, 0x7e, 0x9a, 0xf7, 0x7f, 0xca, 0x4d, 0x8a, 0xd3, 0x7f, 0x69, 0x68, 0x8e, 0x01, 0xb1, 0x07, 0xc8, 0x2f, 0x50, 0xc2, 0x8b, 0x3e, 0x0e, 0x81, 0x3b, 0x6d, 0x61, 0x0e, 0x4a, 0x8d, 0xb8, 0x76, 0x7f, 0xd7, 0xbe, 0x88, 0xdf, 0x7f, 0x36, 0x99, 0xff, 0xfa, 0x74, 0x7e, 0xfb, 0x39, 0x02, 0xd8, 0x7f, 0x50, 0x29, 0x90, 0xc7, 0xc1, 0x7f, 0x7e, 0x49, 0xe6, 0x0d, 0x6e, 0x7f, 0x55, 0x01, 0x86, 0x60, 0x9b, 0x90, 0xc9, 0x97, 0xc5, 0x3e, 0xf7, 0xb4, 0x7f, 0x28, 0xe2, 0xcb, 0x64, 0x14, 0x52, 0x0d, 0xda, 0x25, 0x82, 0x2a, 0x7f, 0x2b, 0x4b, 0x0b, 0x81, 0xe0, 0x05, 0x8f, 0xb8, 0xee, 0xd8, 0x3b, 0x24, 0xe0, 0xa9, 0x7e, 0xc7, 0xba, 0x7f, 0x2d, 0x8e, 0x60, 0x7f, 0xfb, 0xed, 0x2a, 0xfa, 0x3b, 0x14, 0x17, 0x5a, 0xf3, 0x7c, 0x81, 0x9d, 0x1f, 0x6a, 0xde, 0x9f, 0x7f, 0x4f, 0xf0, 0x65, 0x5e, 0x06, 0x05, 0x48, 0xef, 0x06, 0xf6, 0x81, 0x20, 0x97, 0x01, 0x82, 0x02, 0x20, 0x50, 0x45, 0x28, 0x55, 0x81, 0xf5, 0x2b, 0xca, 0x7f, 0x0f, 0x8d, 0xc7, 0x97, 0xae, 0xcc, 0x3c, 0x8a, 0x9a, 0x86, 0x64, 0x14, 0xec, 0x81, 0xca, 0x63, 0x96, 0xc9, 0x39, 0x96, 0xf4, 0xa4, 0x81, 0xe3, 0xb6, 0x05, 0x65, 0x70, 0x21, 0x19, 0x84, 0x7f, 0xdb, 0xc9, 0x8d, 0x53, 0x7d, 0xd8, 0x06, 0x5e, 0x39, 0x59, 0x7f, 0x08, 0xf9, 0x62, 0x81, 0x37, 0xc7, 0x4e, 0xa1, 0x42, 0xc8, 0x12, 0xd5, 0x8a, 0x95, 0x36, 0x46, 0x7f, 0xba, 0x8f, 0x90, 0x46, 0x7f, 0x50, 0xa4, 0xae, 0x55, 0x08, 0xa6, 0x4d, 0xb5, 0xeb, 0x8c, 0xf8, 0x81, 0x78, 0xcc, 0xf2, 0xd5, 0xef, 0xcd, 0xbb, 0x71, 0x22, 0x50, 0x7f, 0x7d, 0x76, 0xbe, 0xc8, 0xa8, 0xe1, 0x7f, 0x41, 0x5f, 0xb1, 0x7f, 0xbc, 0x92, 0x4b, 0x63, 0x16, 0xbc, 0xf9, 0xc6, 0x81, 0x0b, 0xb9, 0x11, 0x26, 0x14, 0x06, 0x02, 0x50, 0x2e, 0x81, 0xa1, 0x58, 0x13, 0x40, 0x73, 0x6f, 0xf6, 0x83, 0xc5, 0x56, 0x84, 0x2b, 0xa6, 0x7f, 0xa8, 0x3a, 0x42, 0x87, 0x10, 0xc3, 0x7f, 0xac, 0xd4, 0x92, 0x6f, 0x81, 0xdd, 0x11, 0xbc, 0xd4, 0x51, 0xbb, 0x4b, 0x7e, 0x60, 0x35, 0x82, 0x81, 0x29, 0xea, 0x8b, 0xdf, 0xd5, 0x9c, 0x44, 0xac, 0xbc, 0xd4, 0x42, 0x0f, 0xad, 0x81, 0x4c, 0x19, 0x3f, 0x0b, 0xe4, 0x33, 0x53, 0x7f, 0x1e, 0x00, 0x17, 0x8d, 0xfa, 0xb7, 0xac, 0x99, 0xe6, 0x7f, 0xd2, 0x0b, 0xfb, 0x99, 0x96, 0x43, 0xb2, 0x8f, 0x81, 0xcc, 0xe0, 0xf8, 0xed, 0x81, 0x6b, 0xc0, 0x8f, 0x7b, 0x15, 0xb6, 0x24, 0x75, 0x66, 0xc2, 0x7f, 0xcd, 0x88, 0x2a, 0x91, 0xfe, 0x79, 0x7f, 0x9d, 0xba, 0x5f, 0x83, 0xe4, 0xb9, 0x53, 0x74, 0x0c, 0x75, 0x81, 0xb2, 0x36, 0x86, 0x1e, 0x8a, 0x81, 0x0a, 0xb7, 0xf4, 0x58, 0x4a, 0x99, 0x67, 0x30, 0x7f, 0xff, 0x9f, 0xff, 0x8b, 0x5c, 0x87, 0x2c, 0x60, 0xc5, 0x54, 0x99, 0xae, 0x81, 0x89, 0x9d, 0xd7, 0x1d, 0x4d, 0x81, 0x18, 0xae, 0xf7, 0xfd, 0xb5, 0xe6, 0x81, 0x00, 0xde, 0x5f, 0x44, 0x6a, 0x1c, };
const int32_t offsetBias7[48] = {12818, -29307, 15186, -10096, -4543, -22275, 18790, 16978, -8926, 28387, 3020, -30350, -30995, -1771, 13481, -13755, -24535, -26427, 13, 27891, 29956, 17909, -23409, -17162, 13284, -11430, -18274, 26963, -26095, -7369, 527, 3436, 22599, 14797, 5581, 16771, 22111, -46495, 31544, -2111, 1442, 2128, -22120, 5050, 13715, 18535, -25281, 521, };
const int32_t offsetRBias7[48] = {0, 0, 0, 0, 0, 0, 0, 0, 0, 0, 0, 0, 0, 0, 0, 0, 0, 0, 0, 0, 0, 0, 0, 0, 0, 0, 0, 0, 0, 0, 0, 0, 0, 0, 0, 0, 0, 0, 0, 0, 0, 0, 0, 0, 0, 0, 0, 0, };
const float scales7[48] = {0.0017890780471455116, 0.0011468554351452226, 0.0011379706908059, 0.001679054262845682, 0.0017028267263515195, 0.0016139128794289458, 0.0015024756257724862, 0.0012435978750803948, 0.0016990950395509214, 0.0016077673604870764, 0.001771615195918485, 0.001744349842919505, 0.0017381664931207727, 0.00173386973782526, 0.001342333618074959, 0.001623585287747974, 0.0017519581549934082, 0.0010950781610690233, 0.0013112019355422003, 0.0013542889669629903, 0.0015307145247461795, 0.0016626584971803802, 0.0017283418036310812, 0.0016530283891865363, 0.0017698143194327144, 0.001496119562947907, 0.001779410906414148, 0.001696107838473567, 0.0015614860160193973, 0.0016606547387575934, 0.0016769192936028896, 0.0016868352879454318, 0.0015543698243324498, 0.00177999018143337, 0.001600463291506763, 0.0017769973935206139, 0.0015744005447339662, 0.0010222114612826855, 0.0015204128791370514, 0.001417556685409865, 0.0014980755938339763, 0.0016353232289269446, 0.0017712111879070078, 0.001321154643374525, 0.0017341976052514055, 0.0017384624357731943, 0.0016010288388732836, 0.001638349537852111, };
const int32_t shift7[48] = {-9, -9, -9, -9, -9, -9, -9, -9, -9, -9, -9, -9, -9, -9, -9, -9, -9, -9, -9, -9, -9, -9, -9, -9, -9, -9, -9, -9, -9, -9, -9, -9, -9, -9, -9, -9, -9, -9, -9, -9, -9, -9, -9, -9, -9, -9, -9, -9, };
const int32_t multiplier7[48] = {1967112116, 1260980886, 1251212007, 1846139686, 1872277786, 1774515977, 1651989421, 1367350324, 1868174753, 1767758908, 1947911508, 1917932935, 1911134270, 1906409938, 1475911421, 1785150903, 1926298363, 1204051171, 1441681774, 1489056467, 1683038419, 1828112351, 1900331910, 1817523935, 1945931423, 1645000856, 1956482982, 1864890290, 1716872031, 1825909195, 1843792262, 1854695013, 1709047696, 1957119902, 1759727999, 1953829297, 1731071706, 1123933388, 1671711640, 1558620059, 1647151535, 1798056905, 1947467296, 1452624892, 1906770432, 1911459663, 1760349825, 1801384367, };
const unsigned char weight8[384] = {0x24, 0x70, 0x95, 0xd1, 0x51, 0x06, 0xb7, 0xf2, 0x5b, 0x65, 0xc4, 0x0f, 0x86, 0xaa, 0x92, 0x39, 0xe3, 0xd1, 0xf4, 0xac, 0x12, 0x8c, 0xb4, 0x53, 0x83, 0x27, 0x85, 0x13, 0x66, 0xa4, 0x01, 0x74, 0xeb, 0x58, 0xb7, 0x59, 0xc4, 0xff, 0x65, 0xe4, 0xc7, 0x29, 0x74, 0xf3, 0x2a, 0x4f, 0x81, 0x0f, 0x73, 0x0d, 0x22, 0x5a, 0xa2, 0x9b, 0x67, 0xae, 0x61, 0x72, 0x5a, 0x97, 0x5d, 0x88, 0x4a, 0x0e, 0xa4, 0xf4, 0x07, 0xd2, 0xe3, 0xb9, 0xe4, 0x79, 0xbb, 0x57, 0xd8, 0xc7, 0xb9, 0x82, 0x11, 0x4a, 0x7f, 0x33, 0x4c, 0x06, 0xba, 0xda, 0x84, 0x82, 0xc3, 0xb6, 0xd4, 0x19, 0xdf, 0x6d, 0xe6, 0x77, 0x53, 0x90, 0x47, 0x25, 0xf9, 0x48, 0xf6, 0x21, 0x1f, 0xa5, 0xb0, 0x8b, 0x15, 0xb7, 0x82, 0xd9, 0x4c, 0x57, 0xd3, 0x7f, 0x20, 0x27, 0xdf, 0x0e, 0x40, 0x36, 0xa1, 0x69, 0x1c, 0x8d, 0x4b, 0x47, 0x7b, 0xc6, 0x39, 0x75, 0xb4, 0x00, 0xbc, 0xc0, 0x8d, 0x33, 0xa4, 0x6d, 0x5a, 0x6c, 0x58, 0xff, 0x5a, 0x81, 0x7e, 0x14, 0xfc, 0xd1, 0x21, 0x6a, 0x39, 0xb1, 0x43, 0x4d, 0x95, 0xcb, 0xda, 0x4b, 0x52, 0x64, 0x6d, 0xbd, 0xbd, 0x01, 0x91, 0x37, 0x47, 0x26, 0x1a, 0x1c, 0xce, 0xbc, 0x11, 0x4f, 0xe4, 0x68, 0x02, 0x0e, 0x43, 0xf2, 0xf2, 0xae, 0x57, 0x6d, 0x7d, 0x66, 0xbe, 0xdd, 0x4d, 0x4f, 0xe5, 0xfc, 0xa5, 0xcf, 0xc2, 0xa0, 0xc7, 0x32, 0x12, 0xe3, 0x7c, 0x38, 0xfb, 0x76, 0xf8, 0x4e, 0x54, 0x73, 0x8e, 0xb8, 0x14, 0x7f, 0xa8, 0xa6, 0x17, 0x75, 0x6b, 0xff, 0x8e, 0xa0, 0xe4, 0xc6, 0x73, 0x63, 0x8a, 0x1c, 0x99, 0x07, 0x06, 0xd5, 0x52, 0x66, 0xb4, 0x00, 0x96, 0x94, 0x5a, 0xde, 0x75, 0xb2, 0xdc, 0x6c, 0x43, 0x15, 0xdf, 0xef, 0xa4, 0x0b, 0xa4, 0x5a, 0xad, 0x5c, 0x4f, 0x0b, 0x89, 0x93, 0xa4, 0xf3, 0x21, 0x14, 0xe5, 0x36, 0xf8, 0xc4, 0x7a, 0x76, 0x7e, 0x20, 0xa1, 0x87, 0xc1, 0x09, 0x87, 0x58, 0x3e, 0x81, 0x55, 0xf9, 0xc4, 0x29, 0x5b, 0x87, 0x0d, 0x94, 0x62, 0x0e, 0xb0, 0x7f, 0xdf, 0x29, 0x42, 0xdc, 0xf5, 0x6f, 0x02, 0xae, 0xdc, 0xa4, 0x46, 0xf3, 0x47, 0xd3, 0x11, 0xf4, 0xca, 0xf5, 0x24, 0x2d, 0x26, 0x09, 0x7c, 0x50, 0x6b, 0xe8, 0xb4, 0xac, 0x13, 0x29, 0x5a, 0xad, 0xd1, 0x9e, 0x19, 0x0b, 0xee, 0xc8, 0xa4, 0x39, 0x03, 0xbd, 0x5e, 0x6a, 0x18, 0xc4, 0x67, 0x4b, 0x10, 0x8a, 0xf3, 0xb8, 0x29, 0x53, 0xf4, 0xdb, 0x28, 0xf8, 0xd1, 0x74, 0xab, 0x33, 0xe4, 0xed, 0x41, 0x18, 0x7f, 0xe4, 0xab, 0xd0, 0x01, 0x29, 0x4e, 0x93, 0x79, 0x54, 0x7a, 0xfb, 0xb3, 0x46, 0x81, 0x58, 0x3a, 0x77, 0x24, 0x02, 0x65, 0x8a, 0xa3, 0xde, 0xf9, 0xe3, 0x62, 0xd8, };
const int32_t bias8[8] = {-6641, -9061, 16917, 15331, 4140, -20825, 9511, 7831, };
const float scales8[8] = {0.0036528805632259293, 0.0037450673305959863, 0.0036213485276876873, 0.0037011421604047877, 0.0035958935516455545, 0.0036635227067462945, 0.003519606121373842, 0.0036383140357670726, };
const int32_t shift8[8] = {-8, -8, -8, -8, -8, -8, -8, -8, };
const int32_t multiplier8[8] = {2008192327, 2058872538, 1990857407, 2034724421, 1976863386, 2014042907, 1934923928, 2000184294, };
const unsigned char weight9[384] = {0x0f, 0x70, 0xdf, 0x05, 0x63, 0x7f, 0x27, 0x22, 0x8c, 0x71, 0x81, 0xf8, 0x2b, 0x75, 0x67, 0xa5, 0x81, 0xdb, 0x26, 0xee, 0xe9, 0x7c, 0xd3, 0x33, 0xdb, 0x2d, 0x34, 0xb7, 0x81, 0x5d, 0xfd, 0xc7, 0x10, 0x06, 0x73, 0x81, 0x8f, 0x54, 0x21, 0xc1, 0x10, 0x7b, 0x74, 0xd9, 0xfd, 0xe4, 0x39, 0x81, 0xb0, 0xec, 0xa9, 0xdd, 0x7f, 0x93, 0xb7, 0x6e, 0x61, 0xc2, 0xb9, 0x28, 0x10, 0xeb, 0x7f, 0xba, 0x8f, 0xab, 0xfa, 0x54, 0x87, 0x39, 0x5c, 0x7f, 0x03, 0x4a, 0x16, 0x81, 0xd7, 0x7e, 0x12, 0xf7, 0xd7, 0xbe, 0x7f, 0x8f, 0x49, 0x36, 0x55, 0x91, 0x39, 0xe4, 0x58, 0xe1, 0x81, 0x48, 0xf9, 0x00, 0xe8, 0x7f, 0x5b, 0xc8, 0x7a, 0x2d, 0x06, 0x14, 0x1e, 0x26, 0xe8, 0x81, 0x6e, 0xf4, 0xd2, 0xb1, 0x03, 0x40, 0x81, 0x39, 0xc8, 0x72, 0x9f, 0x78, 0x94, 0xa7, 0xe8, 0xdc, 0x82, 0x7f, 0x05, 0x34, 0x36, 0x81, 0x43, 0xaf, 0x76, 0xbb, 0xeb, 0x73, 0x48, 0x35, 0xcd, 0x82, 0xc9, 0x81, 0xdf, 0xe7, 0x77, 0x26, 0x53, 0x1f, 0xec, 0x81, 0xb9, 0x20, 0xbb, 0x5a, 0x98, 0x7f, 0xa9, 0xae, 0xfc, 0xb5, 0x30, 0x81, 0xaa, 0x5e, 0x59, 0x8c, 0x79, 0xda, 0x7f, 0x9e, 0xe3, 0x47, 0x5f, 0xf3, 0x71, 0xb1, 0xd4, 0xf5, 0x53, 0x81, 0xd9, 0x0e, 0x92, 0x31, 0x8b, 0xc6, 0xde, 0xd0, 0x3c, 0x7f, 0x1e, 0x87, 0x81, 0x8d, 0xd6, 0xc3, 0xb3, 0x33, 0x37, 0x88, 0x06, 0xcc, 0x4e, 0x8b, 0xec, 0x43, 0xc3, 0x7f, 0x8a, 0xf7, 0x7f, 0xcf, 0xaf, 0x36, 0x58, 0xbf, 0x81, 0xa0, 0xc3, 0x0d, 0x05, 0xac, 0x56, 0x95, 0x8f, 0x07, 0xe1, 0xc5, 0xe2, 0xf6, 0x81, 0x41, 0xe8, 0xfb, 0x26, 0x40, 0xda, 0x09, 0xda, 0x7f, 0x5f, 0x81, 0x47, 0xb5, 0x29, 0xaf, 0x2b, 0xf2, 0x81, 0xd3, 0x6b, 0x4a, 0x88, 0xa8, 0x2c, 0xb5, 0x54, 0x54, 0x8e, 0xb5, 0xc2, 0x81, 0x65, 0x76, 0x81, 0x6d, 0x6b, 0xbe, 0x45, 0x8d, 0xa1, 0x36, 0x42, 0x7f, 0x24, 0xd5, 0x8b, 0xd2, 0x26, 0x19, 0x99, 0x81, 0xff, 0xe1, 0x01, 0xfd, 0x79, 0x6b, 0x10, 0xb3, 0x81, 0x2e, 0x36, 0x4d, 0x7e, 0x5e, 0x85, 0x7f, 0x9a, 0x11, 0xa4, 0x19, 0xb2, 0x42, 0x14, 0xf9, 0x9b, 0x90, 0xf0, 0x39, 0x7f, 0x45, 0x91, 0xb6, 0x97, 0x6c, 0xa5, 0x09, 0xb2, 0x7f, 0x5f, 0xbf, 0x38, 0xc3, 0x04, 0x03, 0x81, 0xa1, 0xa2, 0xea, 0xbb, 0x09, 0x5f, 0xc7, 0x7f, 0x93, 0x55, 0xb8, 0x7b, 0xeb, 0x0c, 0x81, 0xca, 0x1e, 0x92, 0x27, 0xf4, 0xf4, 0x76, 0x30, 0x7f, 0xe5, 0x81, 0x2a, 0xcd, 0x4d, 0x58, 0xa3, 0x7c, 0xfd, 0x28, 0x34, 0xf0, 0xfe, 0x88, 0xe9, 0x7f, 0x91, 0x33, 0xc1, 0xb2, 0xc7, 0x9d, 0xa3, 0x7f, 0x9b, 0x84, 0x2b, 0xfb, 0x7f, 0xb5, 0x31, 0x7c, 0xca, };
const int32_t bias9[48] = {7808, -26748, 37218, 39677, -21736, 39584, 9363, -28759, -18651, -8653, 16898, -47029, 23358, 20940, 50101, -34331, 7140, 155, -17120, -16728, -26220, -16382, -28823, -26258, 15136, -12542, -39669, 23744, 39375, 15607, -17701, 28289, -38927, 28108, 8258, -38400, 1957, 18171, -38686, 43291, 12423, -9536, -6678, 30029, -20421, -24617, -21953, -16567, };
const float scales9[48] = {0.0021694597150396697, 0.0021260749346022094, 0.0020621773434292474, 0.001785445228894908, 0.001931947981007406, 0.001741789680521116, 0.0020951717002063264, 0.00215087214263022, 0.0015415064436987034, 0.0020903577849858733, 0.0019153562978717537, 0.0016639370704479351, 0.0014734168659445233, 0.0019600390163389218, 0.0014738427746217803, 0.0017814303249082317, 0.0017399310871612354, 0.0016425194541471106, 0.0018758096119615361, 0.0018295601905191146, 0.002162465999573196, 0.002049880254630108, 0.0020654416721411686, 0.0018158588230885067, 0.0016429408105725796, 0.002003076733100088, 0.0021474819896788867, 0.002133576135097975, 0.0017829371202499591, 0.002062708682257907, 0.0018785271241887193, 0.0020031858050529212, 0.0014769637984474247, 0.0020156675331845695, 0.002074658161110538, 0.0018201210053922908, 0.0019364585341687269, 0.002079854647571229, 0.001929338448192627, 0.001654266448840225, 0.0021553486449481687, 0.0016956855669557577, 0.002008733725351622, 0.0020349521463877513, 0.0020686062154939033, 0.0016914911221585743, 0.0021694890315411826, 0.0021690960811668685, };
const int32_t shift9[48] = {-8, -8, -8, -9, -9, -9, -8, -8, -9, -8, -9, -9, -9, -8, -9, -9, -9, -9, -9, -9, -8, -8, -8, -9, -9, -8, -8, -8, -9, -8, -9, -8, -9, -8, -8, -9, -9, -8, -9, -9, -8, -9, -8, -8, -8, -9, -8, -8, };
const int32_t multiplier9[48] = {1192673091, 1168822056, 1133693984, 1963117790, 2124199269, 1915118007, 1151832823, 1182454465, 1694904259, 1149186345, 2105956521, 1829518157, 1620038977, 1077542845, 1620507268, 1958703356, 1913074462, 1805969239, 2062474480, 2011622703, 1188828256, 1126933588, 1135488568, 1996557890, 1806432525, 1101203080, 1180590709, 1172945885, 1960360095, 1133986090, 2065462416, 1101263043, 1623938870, 1108124945, 1140555386, 2001244209, 2129158675, 1143412185, 2121330058, 1818885196, 1184915449, 1864425998, 1104313044, 1118726773, 1137228294, 1859814157, 1192689208, 1192473182, };
const unsigned char CHWweight10[432] = {0xa7, 0x73, 0x7f, 0xfd, 0x63, 0x5b, 0x32, 0xe1, 0x3f, 0xd2, 0xa8, 0x81, 0x29, 0x7f, 0x34, 0xe0, 0x1d, 0x31, 0xaa, 0x1e, 0xf3, 0x3d, 0x81, 0xec, 0x2f, 0x1e, 0x0d, 0xfc, 0x97, 0xb8, 0xf5, 0x0d, 0x34, 0xe4, 0x7f, 0xf9, 0xa1, 0x3f, 0x81, 0x1c, 0x75, 0x29, 0x26, 0x2e, 0xb8, 0x7f, 0xce, 0xed, 0xbb, 0x97, 0x1b, 0x50, 0xeb, 0x5e, 0x7a, 0x7f, 0x1d, 0x6e, 0xcd, 0xdc, 0xc4, 0x59, 0x98, 0x8e, 0x39, 0xf2, 0x55, 0x03, 0xcd, 0x81, 0x4b, 0x8b, 0xd6, 0x27, 0xd7, 0x04, 0xdd, 0x7f, 0xde, 0x3b, 0x47, 0x4e, 0x55, 0x40, 0x71, 0x88, 0x81, 0xf5, 0x9a, 0x2c, 0x12, 0x85, 0xee, 0x82, 0x2b, 0x7f, 0x2c, 0xab, 0xc3, 0x5a, 0x53, 0x78, 0xc4, 0x76, 0x97, 0x7f, 0xee, 0x87, 0x3c, 0x6f, 0x6d, 0xbe, 0xbb, 0xf1, 0xf7, 0xbb, 0x7f, 0x81, 0x13, 0x23, 0xb0, 0x5c, 0x5c, 0x64, 0x98, 0xee, 0xbe, 0xb7, 0x08, 0x04, 0x7f, 0x5a, 0x18, 0x7e, 0x1b, 0xfa, 0x55, 0x58, 0x21, 0xec, 0x81, 0x54, 0xfe, 0x43, 0x84, 0x1e, 0xc4, 0x7f, 0xd1, 0x3e, 0xf7, 0x14, 0x34, 0x1a, 0x24, 0x31, 0x87, 0xfa, 0x81, 0xcb, 0x26, 0x45, 0x30, 0xf7, 0xf9, 0x7f, 0xce, 0x7a, 0x5a, 0xa6, 0xe6, 0x0e, 0xf3, 0x49, 0x3a, 0x6f, 0x9e, 0x33, 0x45, 0x81, 0xa6, 0xdd, 0x62, 0x41, 0x2b, 0xac, 0xb9, 0x7f, 0xa3, 0xb4, 0x2f, 0xf7, 0xbc, 0xc0, 0x7f, 0xe4, 0x7b, 0x93, 0xc7, 0x2a, 0x7f, 0x18, 0x2d, 0x19, 0x82, 0xab, 0x12, 0xa0, 0xbc, 0xcf, 0x55, 0xa8, 0x9a, 0xc3, 0x89, 0x7f, 0xb2, 0x77, 0x7f, 0xd6, 0xdb, 0x84, 0x4e, 0x5d, 0x77, 0x3e, 0x55, 0xcc, 0x2b, 0x38, 0xfd, 0x7f, 0x8b, 0xeb, 0x8b, 0x7f, 0xdf, 0x20, 0xea, 0x32, 0x40, 0xb0, 0x6a, 0x29, 0x1b, 0x26, 0x7f, 0x10, 0xfe, 0xa2, 0xd0, 0x2a, 0x7d, 0xfd, 0x10, 0x81, 0xff, 0xf3, 0xf6, 0x6b, 0xbe, 0x37, 0xa8, 0xc7, 0x7f, 0x47, 0x23, 0x4b, 0x15, 0x8f, 0x18, 0x9e, 0xc9, 0x81, 0x87, 0x26, 0x45, 0xd3, 0x85, 0x3f, 0xdc, 0x26, 0x03, 0x0f, 0x7f, 0x56, 0xbc, 0x08, 0x55, 0x91, 0xb5, 0xf2, 0x7f, 0xa3, 0x2b, 0x38, 0x3f, 0xf9, 0x0b, 0x7f, 0x39, 0x36, 0xc3, 0xd0, 0xf2, 0x08, 0x94, 0x78, 0x76, 0xbf, 0xab, 0x37, 0x81, 0x94, 0x88, 0x9e, 0x12, 0x23, 0xc9, 0x02, 0xb2, 0xd8, 0x7f, 0x05, 0xa5, 0x0d, 0x73, 0x81, 0xa6, 0xcc, 0x5b, 0x76, 0x82, 0xce, 0xdd, 0xfd, 0x7f, 0x50, 0xf1, 0x30, 0x08, 0xcb, 0xf6, 0x2a, 0xa9, 0x82, 0xad, 0x7f, 0xb7, 0x14, 0xd9, 0xf9, 0xf2, 0x4d, 0x08, 0x85, 0x6b, 0x3a, 0x6c, 0x7f, 0xfe, 0xc1, 0x7f, 0x9f, 0xd2, 0x37, 0xb2, 0x4a, 0x64, 0x11, 0x9c, 0xae, 0x1f, 0xf7, 0x35, 0xc3, 0x7f, 0x21, 0xf4, 0x3b, 0xef, 0xfa, 0x99, 0x7f, 0xf8, 0xaa, 0xd8, 0xdd, 0x8a, 0xde, 0x69, 0xd2, 0xe2, 0xf0, 0x7f, 0xe0, 0xe4, 0xc0, 0x3c, 0x14, 0x34, 0x81, 0x20, 0xd3, 0x52, 0xd8, 0x78, 0xdd, 0x6a, 0x24, 0x86, 0x7d, 0x7f, 0x06, 0x3d, 0xfa, 0xdc, 0x57, 0xc2, 0x53, 0x66, 0x81, 0xa6, 0x59, 0xc8, 0x0b, 0x5a, 0x8a, 0x4b, 0x7f, 0xa4, 0x85, };
const int32_t offsetBias10[48] = {-27520, 28798, 19533, 31768, -31144, -24655, 5914, -4369, 22092, -14996, 897, -7764, -10839, 29229, 12576, 14677, 12396, 24212, 7548, -25897, 25400, -16306, -10297, 39667, -27853, 48443, 13082, -12039, -27747, 23453, -771, -8598, -8026, 14189, 2221, 34178, -26549, -34468, 4320, -34488, -16145, -21944, 11709, 34200, -24651, -19729, 24363, -11838, };
const int32_t offsetRBias10[48] = {0, 0, 0, 0, 0, 0, 0, 0, 0, 0, 0, 0, 0, 0, 0, 0, 0, 0, 0, 0, 0, 0, 0, 0, 0, 0, 0, 0, 0, 0, 0, 0, 0, 0, 0, 0, 0, 0, 0, 0, 0, 0, 0, 0, 0, 0, 0, 0, };
const float scales10[48] = {0.002207360037829453, 0.002181331678783553, 0.0020233120019954244, 0.0021037169612322447, 0.0021306465436077946, 0.002010983913141428, 0.0021240168272323528, 0.0018576426984988528, 0.002243635972376483, 0.001925350941012444, 0.002210235853841751, 0.0021566525615707103, 0.0019039212545300126, 0.002026842292054775, 0.002025747778462524, 0.0020453036066096896, 0.002129207937442802, 0.0021213426793887744, 0.002026740959285527, 0.0022218823401907867, 0.0020159536072615917, 0.0020117927800298147, 0.0019909752791159303, 0.0021270270886904643, 0.0022267505020677467, 0.001276809249388334, 0.002225972354168463, 0.0021006452617959278, 0.0021916241359246063, 0.0016962020433788304, 0.001707541539310794, 0.001809419670352282, 0.002101978545712568, 0.0022217367242034812, 0.0019738885395863847, 0.002088575890661842, 0.0019647009686832536, 0.0018613602946021479, 0.002237387650203407, 0.0018984462928812959, 0.0018751991991929236, 0.002102997458675793, 0.002230483457665593, 0.002057460945758024, 0.001347877730414457, 0.0021469567310296975, 0.002168027164918791, 0.0021563647206533387, };
const int32_t shift10[48] = {-8, -8, -8, -8, -8, -8, -8, -9, -8, -9, -8, -8, -9, -8, -8, -8, -8, -8, -8, -8, -8, -8, -8, -8, -8, -9, -8, -8, -8, -9, -9, -9, -8, -8, -8, -8, -8, -9, -8, -9, -9, -8, -8, -8, -9, -8, -8, -8, };
const int32_t multiplier10[48] = {1213509014, 1199199772, 1112327536, 1156530630, 1171335325, 1105550098, 1167690600, 2042499747, 1233451920, 2116945747, 1215090011, 1185632284, 2093383558, 1114268334, 1113666619, 1124417549, 1170544443, 1166220471, 1114212626, 1221492734, 1108282216, 1105994777, 1094550235, 1169345508, 1224169035, 1403866616, 1223741243, 1154841946, 1204858111, 1864993870, 1877461777, 1989477967, 1155574926, 1221412681, 1085156701, 1148206739, 1080105780, 2046587287, 1230016869, 2087363774, 2061803324, 1156135079, 1226221249, 1131101117, 1482007237, 1180301945, 1191885539, 1185474042, };
const unsigned char weight11[768] = {0xe6, 0x6b, 0xb5, 0xf5, 0xd6, 0x25, 0xf6, 0x2a, 0x8f, 0xb1, 0x4c, 0x23, 0xa2, 0xe3, 0x3b, 0x18, 0x2d, 0x66, 0x0e, 0x81, 0x29, 0xa6, 0x06, 0x32, 0xcc, 0xf4, 0xe2, 0x02, 0xd9, 0xcc, 0xc2, 0xe0, 0x9d, 0xa5, 0xb4, 0xdc, 0x93, 0xe8, 0xf7, 0x00, 0x43, 0x18, 0x40, 0x61, 0x12, 0x09, 0xa3, 0xd0, 0xf7, 0x81, 0xd2, 0x3c, 0xf9, 0x09, 0xfe, 0x4f, 0x4e, 0x1b, 0xa7, 0x74, 0x38, 0x73, 0x51, 0x87, 0x35, 0x30, 0x4a, 0x71, 0x4b, 0x24, 0xe6, 0x81, 0x67, 0x9c, 0x57, 0x91, 0x5a, 0xae, 0xf2, 0x04, 0x73, 0xaf, 0x11, 0x49, 0xbc, 0xf8, 0xa9, 0x5d, 0xc1, 0x07, 0xc3, 0x74, 0xdc, 0x08, 0x06, 0x41, 0x08, 0x11, 0xaa, 0xc7, 0xf4, 0xb7, 0x62, 0x53, 0x0e, 0xa6, 0x7a, 0x77, 0x36, 0x6e, 0x90, 0x2e, 0x4c, 0xa4, 0x88, 0xaa, 0x4b, 0x9d, 0xa5, 0x82, 0x05, 0x25, 0x1d, 0x12, 0xb7, 0x96, 0xc3, 0x1b, 0x70, 0xe7, 0x7b, 0x8e, 0x7f, 0xb2, 0xd9, 0x0d, 0xcb, 0x06, 0x98, 0x64, 0x1b, 0x13, 0xcd, 0xdc, 0x4d, 0xc3, 0xf9, 0x98, 0xa1, 0xb3, 0xd2, 0x8b, 0xc6, 0x38, 0xc0, 0x3f, 0xc8, 0x8a, 0x8d, 0x75, 0x81, 0xcf, 0x90, 0x8b, 0xa3, 0x98, 0x8b, 0x76, 0x35, 0x66, 0x14, 0xed, 0x7c, 0x53, 0x0d, 0xd6, 0x78, 0xc8, 0xd8, 0x73, 0x15, 0x43, 0x31, 0xee, 0xf7, 0x25, 0xb7, 0x00, 0x61, 0xdd, 0x51, 0x3b, 0xdc, 0x25, 0x30, 0xf7, 0x28, 0x38, 0xb6, 0xd6, 0x30, 0x64, 0xfc, 0xa0, 0x17, 0x66, 0x78, 0xf5, 0xc1, 0xf2, 0x22, 0x23, 0xc6, 0x15, 0x86, 0xdf, 0x43, 0xb8, 0xda, 0xe6, 0x7f, 0x95, 0xc8, 0xb5, 0x4a, 0x94, 0x06, 0xa5, 0x35, 0x05, 0xf0, 0xe3, 0x9a, 0xe8, 0x68, 0x22, 0xb5, 0xeb, 0x56, 0x90, 0x01, 0xa5, 0x0a, 0x7d, 0x19, 0xe8, 0x50, 0x09, 0x9d, 0xac, 0xc1, 0x7d, 0x5d, 0xb6, 0xaf, 0xef, 0x04, 0x6a, 0xa2, 0xe8, 0x3b, 0x43, 0xd1, 0x47, 0xa9, 0xcc, 0xeb, 0x7f, 0x70, 0x51, 0x56, 0xc9, 0x1b, 0x93, 0xa3, 0x28, 0x99, 0xb5, 0xa6, 0x82, 0xe4, 0xfa, 0x7c, 0xa8, 0x62, 0x96, 0x5a, 0x87, 0x74, 0x66, 0x71, 0xff, 0x1d, 0x2f, 0x56, 0xca, 0xb5, 0xbe, 0x81, 0xbd, 0x0d, 0xbc, 0xbc, 0x15, 0x38, 0xe8, 0x16, 0xdc, 0x6c, 0xc0, 0xf0, 0x7b, 0x9b, 0x4b, 0x98, 0xde, 0x98, 0x43, 0xc2, 0x6f, 0xdd, 0x02, 0x59, 0x5d, 0xf0, 0x30, 0xab, 0xa1, 0x5e, 0xd7, 0x99, 0x9a, 0x0c, 0x7e, 0x9d, 0x08, 0xbb, 0x92, 0xe8, 0x73, 0xc7, 0x6a, 0x72, 0x58, 0xa4, 0xa9, 0x4e, 0x0c, 0x95, 0xf7, 0x6c, 0x17, 0x4b, 0xb4, 0x6c, 0xad, 0x24, 0x35, 0xda, 0xa6, 0x29, 0xad, 0x75, 0x44, 0x8a, 0xe1, 0x5b, 0xa4, 0x7f, 0x43, 0x59, 0xbd, 0xee, 0x79, 0x8f, 0x46, 0x90, 0x09, 0x84, 0xb4, 0xe7, 0xbb, 0xc8, 0xad, 0xab, 0x37, 0x08, 0x25, 0x4f, 0x4a, 0xad, 0xa8, 0x7c, 0x32, 0x81, 0x33, 0x93, 0xe9, 0xfa, 0x6d, 0xb8, 0xf6, 0x4f, 0x3f, 0xeb, 0x96, 0xb0, 0x2f, 0x27, 0x82, 0x54, 0xbd, 0xb5, 0x31, 0x59, 0x45, 0x6b, 0x32, 0x7c, 0xdb, 0x8a, 0x73, 0x56, 0xd9, 0x60, 0x6c, 0xab, 0xad, 0x7d, 0x2b, 0x9e, 0xd6, 0x92, 0x81, 0xce, 0xca, 0x6a, 0xad, 0xe0, 0x94, 0xba, 0x08, 0xb7, 0x09, 0x4e, 0x90, 0xb6, 0x1a, 0x7c, 0x1b, 0x69, 0x5b, 0xcd, 0x46, 0xc2, 0x9e, 0x16, 0x6b, 0x32, 0xf4, 0x77, 0x57, 0xdf, 0xe3, 0x93, 0x8e, 0x05, 0x48, 0x15, 0x2a, 0x29, 0x11, 0xf4, 0x41, 0x8d, 0xbd, 0x38, 0xe5, 0x77, 0xfa, 0xdb, 0x88, 0x9c, 0x95, 0xb9, 0x3a, 0x84, 0xa1, 0x1e, 0xec, 0x6a, 0x5f, 0xe5, 0x0d, 0xb0, 0xa4, 0xcf, 0xa7, 0x55, 0xae, 0x0e, 0x0e, 0x6b, 0x34, 0x81, 0x5d, 0xf1, 0xb6, 0x5d, 0x2d, 0x4e, 0x0b, 0x6d, 0xd4, 0x76, 0xe5, 0xdd, 0x61, 0xb8, 0xd7, 0x84, 0xd8, 0x3d, 0xa1, 0x2a, 0x9e, 0xa9, 0x37, 0x02, 0xb0, 0xb6, 0xb8, 0x0f, 0xc5, 0x2f, 0x5f, 0xd7, 0x1f, 0x7f, 0xf1, 0xc7, 0xa9, 0x09, 0x93, 0x1d, 0x06, 0xca, 0xc4, 0x98, 0xeb, 0xf0, 0x04, 0x4d, 0xf3, 0xc4, 0xbd, 0xb0, 0x91, 0x0b, 0x97, 0x29, 0x47, 0xf8, 0x6c, 0x7e, 0xcd, 0xd9, 0x15, 0x7e, 0xf5, 0x6a, 0xdf, 0x43, 0x19, 0xc6, 0x37, 0x55, 0xa4, 0x2e, 0xa3, 0x1e, 0x81, 0xe9, 0x5a, 0x8a, 0x75, 0x46, 0x3a, 0x9d, 0x85, 0xf5, 0x53, 0x47, 0x6e, 0xeb, 0x96, 0x43, 0xf5, 0xbb, 0xeb, 0x12, 0x7f, 0x13, 0x9e, 0x2f, 0x2a, 0x27, 0x05, 0x2f, 0xbd, 0xd7, 0xa5, 0x90, 0x49, 0xf3, 0xe8, 0x3c, 0xb9, 0xa9, 0xac, 0xa6, 0xa7, 0xdf, 0x59, 0x87, 0x88, 0x58, 0x0e, 0x77, 0x21, 0x1a, 0xe4, 0x1a, 0xe1, 0x19, 0xe8, 0x72, 0xbe, 0x29, 0xc9, 0x33, 0x0a, 0xda, 0xf9, 0x57, 0xfa, 0xad, 0xa2, 0x1a, 0xf5, 0x44, 0xd2, 0x47, 0x34, 0x2a, 0x59, 0xdf, 0x4a, 0xcb, 0x14, 0x81, 0x5d, 0xfe, 0xaa, 0x9a, 0xee, 0xbc, 0xb2, 0xb0, 0x9f, 0x38, 0x55, 0xa3, 0xc1, 0xfe, 0xc9, 0xc0, 0x7f, 0x5a, 0x45, 0xa7, 0xa1, 0x29, 0xc9, 0x50, 0xda, 0x9f, 0x02, 0xca, 0xa4, 0x5e, 0xd5, 0x24, 0x70, 0xf0, 0x6f, 0x9b, 0xc1, 0x3e, 0x47, 0xb4, 0x0e, 0x36, 0x01, 0xb0, 0x18, 0x48, 0xd4, 0xa8, 0xba, 0x93, 0x46, 0xd1, 0x61, 0x3b, 0xc4, 0x44, 0x6c, 0x2e, 0xd5, 0x60, 0xf4, 0x87, 0x19, 0x44, 0xf7, 0xf8, 0x16, 0x6d, 0xd8, 0x13, 0x32, 0x31, 0x70, 0xd0, 0x63, 0xc0, 0x5d, 0xa7, 0x91, 0xbb, 0x4b, 0xed, 0x67, 0xfb, 0x95, 0x95, 0x67, 0x81, 0x27, 0xe7, 0xe3, 0x6c, 0xa0, 0x5a, 0x8f, 0xcb, 0x49, 0x43, 0x46, 0x67, 0xe5, 0x8d, 0xd4, 0x8f, 0x99, 0xff, 0x77, };
const int32_t bias11[16] = {15415, -10351, -5220, -18877, -17087, -11492, -14009, 942, -13751, -1890, 18485, -26831, 20286, 15180, 26953, -5343, };
const float scales11[16] = {0.0021725197235898993, 0.002141231563898793, 0.002171034061539536, 0.002079701368233339, 0.0021746182662015965, 0.002169259945431876, 0.0021345175315425576, 0.002191326343573382, 0.0021373251810106173, 0.0020314578205991095, 0.002184074523138383, 0.0021709290669606135, 0.0021526566378112207, 0.002160963799902455, 0.002094924458038138, 0.0021839063519498735, };
const int32_t shift11[16] = {-8, -8, -8, -8, -8, -8, -8, -8, -8, -8, -8, -8, -8, -8, -8, -8, };
const int32_t multiplier11[16] = {1194355349, 1177154501, 1193538597, 1143327918, 1195509035, 1192563267, 1173463423, 1204694398, 1175006944, 1116805748, 1200707667, 1193480876, 1183435502, 1188002413, 1151696900, 1200615214, };
const unsigned char weight12[1536] = {0x01, 0x5f, 0x53, 0x30, 0x7f, 0xe3, 0x64, 0x2f, 0x38, 0x2c, 0x48, 0xd6, 0x81, 0x9c, 0x73, 0xef, 0x63, 0xc0, 0x7c, 0xd5, 0x8e, 0x81, 0x0c, 0x2f, 0xc8, 0xad, 0x8e, 0xda, 0x52, 0x99, 0x4f, 0x2c, 0x9a, 0x25, 0x81, 0x54, 0xe8, 0x81, 0x7c, 0x7a, 0xad, 0x52, 0xd2, 0x08, 0x7d, 0x79, 0xd3, 0x5a, 0x3d, 0x95, 0x9b, 0x77, 0xee, 0x0e, 0x36, 0x0c, 0xfa, 0x9f, 0x50, 0x1c, 0x42, 0x9c, 0x7f, 0x9a, 0x30, 0x81, 0x76, 0x79, 0xce, 0x41, 0xdf, 0x4f, 0x3e, 0x6b, 0x66, 0xba, 0x5d, 0xac, 0xa6, 0x85, 0x9f, 0xa9, 0xe0, 0x28, 0x7f, 0x95, 0x15, 0x00, 0x99, 0xa8, 0x12, 0xa1, 0x2d, 0xd7, 0xa0, 0x86, 0xd2, 0x24, 0x06, 0xc4, 0x48, 0x9f, 0xb4, 0x77, 0x00, 0xcd, 0x31, 0x81, 0xbe, 0x37, 0x1b, 0xae, 0x69, 0x97, 0x1f, 0x18, 0xe0, 0xd6, 0x22, 0xad, 0x8f, 0x84, 0x7f, 0x13, 0x9a, 0xd7, 0xcc, 0x2a, 0xbb, 0xfd, 0xc0, 0x81, 0x86, 0xa9, 0xcb, 0x51, 0x38, 0x49, 0xfc, 0x90, 0x4c, 0xcf, 0x29, 0xf5, 0x68, 0xe9, 0xbd, 0x86, 0x2d, 0xfe, 0x27, 0x90, 0x7d, 0x0e, 0x5e, 0x81, 0x19, 0xfe, 0x7e, 0x4e, 0x61, 0xcd, 0xfd, 0x18, 0xb8, 0x91, 0xc6, 0x90, 0x4b, 0x8d, 0x7f, 0x91, 0x03, 0x86, 0x56, 0x10, 0x7f, 0x00, 0x39, 0xa3, 0x1f, 0x4a, 0x34, 0xa2, 0x05, 0x00, 0x97, 0x08, 0xf3, 0xe4, 0x40, 0x31, 0x77, 0x7e, 0x28, 0x6a, 0xf1, 0x5c, 0xba, 0x6f, 0x84, 0x67, 0x14, 0x81, 0x17, 0x1e, 0xde, 0xed, 0xb4, 0xf9, 0x59, 0xe4, 0x67, 0xfb, 0x81, 0xc0, 0xf9, 0x89, 0xaa, 0x48, 0x8a, 0x84, 0x1b, 0x67, 0x5a, 0xf9, 0x63, 0x08, 0xa0, 0xd3, 0x98, 0x6d, 0xbf, 0xaa, 0x13, 0xeb, 0x7f, 0x31, 0xd0, 0x7e, 0x44, 0x0f, 0xaa, 0xb2, 0xab, 0x60, 0xe7, 0xe9, 0xf7, 0xd6, 0x7f, 0x62, 0x55, 0xf2, 0xb0, 0x21, 0x43, 0x92, 0x82, 0xfa, 0x4f, 0x8e, 0x5b, 0x81, 0x7a, 0x6d, 0x8e, 0x16, 0xfa, 0x8b, 0xf5, 0x00, 0x0b, 0x0c, 0xa5, 0x90, 0x81, 0x31, 0x21, 0xe1, 0xbf, 0x99, 0x12, 0x6a, 0x63, 0x2a, 0xa3, 0xbe, 0x86, 0x81, 0xb8, 0x37, 0x5f, 0x7a, 0x5c, 0xd6, 0x01, 0xf9, 0x51, 0x81, 0xe6, 0xdc, 0x27, 0x2a, 0x93, 0xb5, 0x73, 0x79, 0x50, 0xcd, 0x5a, 0x0d, 0x8f, 0x81, 0x74, 0xe2, 0x58, 0xd7, 0x60, 0x88, 0xf7, 0xb6, 0x9f, 0x43, 0xc8, 0xe2, 0xa0, 0x7f, 0x6b, 0x48, 0xfc, 0x46, 0x3a, 0x86, 0xe2, 0x57, 0x79, 0xb3, 0xd5, 0xa7, 0xa8, 0x86, 0xae, 0xfb, 0xb3, 0x81, 0x99, 0x2d, 0x56, 0x09, 0x6a, 0x63, 0x97, 0xf2, 0xf7, 0xe7, 0x7f, 0x0f, 0xd9, 0xab, 0xbf, 0x31, 0x45, 0x8e, 0x16, 0x7b, 0x92, 0x50, 0x84, 0x6d, 0x38, 0x72, 0x60, 0x27, 0xa5, 0x07, 0xbe, 0x2a, 0xad, 0x8b, 0x7f, 0xd2, 0x0f, 0x06, 0xad, 0x34, 0x81, 0x5c, 0xef, 0x77, 0x6c, 0xd7, 0x3e, 0xe1, 0x20, 0x9b, 0x67, 0x54, 0x09, 0xdf, 0xdd, 0xd8, 0x7f, 0xd7, 0xfe, 0x31, 0x54, 0x02, 0x0e, 0x40, 0x9c, 0x25, 0x4a, 0x77, 0xcc, 0x3c, 0xae, 0x7f, 0x27, 0x17, 0xb0, 0x35, 0x86, 0xa7, 0xba, 0x39, 0x63, 0x0a, 0x50, 0xdf, 0x99, 0x04, 0x2d, 0xac, 0x68, 0xe4, 0x84, 0xb8, 0xf1, 0xce, 0xcd, 0x97, 0xb1, 0x06, 0x13, 0xc7, 0x7f, 0x42, 0xfc, 0xba, 0xc7, 0x00, 0x10, 0xda, 0xd8, 0x88, 0x68, 0xe2, 0x2c, 0x4a, 0xf5, 0x5a, 0x7f, 0x31, 0xe1, 0x7f, 0x30, 0x25, 0x2c, 0x3b, 0x53, 0x88, 0x47, 0x05, 0xb0, 0x3e, 0x32, 0xd9, 0xb4, 0x37, 0x6f, 0xff, 0x3e, 0xd3, 0x23, 0xa1, 0x78, 0x60, 0xfc, 0xca, 0x34, 0x33, 0x81, 0x4b, 0xff, 0xbc, 0xb1, 0x88, 0x9a, 0xe1, 0x7f, 0x40, 0x5a, 0xb6, 0x38, 0xe8, 0x85, 0xf1, 0xa1, 0xd3, 0x3f, 0x97, 0x2b, 0x18, 0x41, 0xcf, 0x2c, 0xbd, 0x1e, 0x42, 0x69, 0x82, 0x00, 0xe9, 0x8d, 0x7f, 0xd5, 0x99, 0xe5, 0x49, 0xb2, 0x47, 0x40, 0x50, 0xd6, 0xa9, 0xc0, 0x83, 0x7f, 0x57, 0x14, 0x9b, 0x74, 0x83, 0xe3, 0xd8, 0x5b, 0x10, 0xc3, 0x04, 0x5b, 0x59, 0xff, 0x23, 0xbc, 0x8e, 0x49, 0xb1, 0x92, 0x81, 0x01, 0x54, 0x2e, 0xa3, 0x68, 0x4c, 0x91, 0x13, 0x7f, 0x09, 0x5e, 0xa7, 0xdb, 0xee, 0x27, 0xa2, 0xa6, 0x5e, 0x3b, 0xc8, 0x75, 0xd6, 0x12, 0xd3, 0x7c, 0x7f, 0x62, 0xaa, 0xd7, 0x18, 0x2c, 0x2a, 0x76, 0xf2, 0x10, 0xe2, 0x72, 0xdf, 0x76, 0xb1, 0x7f, 0x3d, 0x60, 0xec, 0x84, 0x8a, 0xf7, 0x2b, 0x5f, 0x87, 0x13, 0x81, 0xa4, 0xe6, 0x54, 0xfd, 0x12, 0x11, 0x9d, 0xe6, 0xcb, 0x9a, 0xa0, 0x0b, 0xd0, 0x52, 0x74, 0x01, 0xd7, 0x7f, 0x54, 0x9e, 0xbc, 0xf9, 0x99, 0x46, 0xda, 0xb2, 0xd4, 0xa4, 0x82, 0x7f, 0xa5, 0xa6, 0x85, 0x1f, 0xb9, 0x6a, 0x55, 0x6b, 0xe9, 0xa8, 0xd7, 0xb9, 0xce, 0x4a, 0x32, 0xca, 0x2a, 0xe3, 0x17, 0xdd, 0xd6, 0xe4, 0x05, 0x16, 0xbe, 0xdd, 0x23, 0x81, 0x92, 0x0a, 0xc2, 0x4b, 0x92, 0x22, 0xb2, 0x87, 0x81, 0x60, 0xa1, 0x17, 0x74, 0x23, 0x9b, 0x86, 0x1c, 0x0a, 0x93, 0xb2, 0x23, 0x7f, 0x0e, 0x87, 0xc1, 0xc6, 0xdf, 0xcb, 0xd9, 0x66, 0xba, 0x67, 0x11, 0x4e, 0x9e, 0x4d, 0xb5, 0x7f, 0xd7, 0xf9, 0x67, 0x9a, 0x3a, 0x86, 0x21, 0xfa, 0xb9, 0xb5, 0x2a, 0xb0, 0xe2, 0xc9, 0x6d, 0xc4, 0x4c, 0x15, 0xae, 0x7f, 0xc0, 0x10, 0xe6, 0x1a, 0xbd, 0xea, 0x1e, 0xc2, 0xeb, 0xa2, 0x89, 0x85, 0x33, 0x97, 0x6d, 0xba, 0x38, 0xb1, 0xb5, 0x6b, 0x08, 0x8d, 0x81, 0x44, 0x03, 0x29, 0x0f, 0xf1, 0xab, 0xf6, 0xc5, 0xcc, 0xbc, 0x70, 0x7f, 0x31, 0x20, 0x7d, 0x43, 0x92, 0x88, 0x64, 0x39, 0x9e, 0x30, 0x8a, 0x46, 0xa9, 0xe1, 0x65, 0x42, 0xba, 0xf2, 0x8d, 0x81, 0x26, 0xc5, 0x81, 0x1f, 0x95, 0x68, 0x46, 0x99, 0x84, 0x57, 0x4a, 0xd7, 0x1c, 0x61, 0x8a, 0xd2, 0xac, 0x07, 0x41, 0x96, 0x5a, 0xb2, 0x24, 0x7f, 0x2c, 0x81, 0xba, 0x35, 0x85, 0x39, 0xb0, 0xbe, 0xf6, 0x94, 0x40, 0xa6, 0x98, 0xd5, 0x6f, 0xd3, 0x02, 0xf9, 0x01, 0x39, 0x7a, 0x7f, 0xc9, 0xb0, 0x92, 0x8c, 0x09, 0x64, 0xfe, 0x88, 0x1e, 0x71, 0x24, 0x27, 0xc1, 0x70, 0x84, 0x7f, 0x57, 0x66, 0xe1, 0x38, 0xd0, 0x8e, 0x9a, 0x93, 0xb8, 0x05, 0x98, 0x02, 0xd5, 0xb3, 0x7f, 0x25, 0x18, 0x02, 0xa1, 0x5a, 0xbf, 0x7f, 0xa4, 0xa8, 0x89, 0x76, 0xe0, 0x94, 0xf1, 0xef, 0x86, 0xd9, 0x9e, 0x4d, 0xb7, 0xf7, 0x3b, 0x32, 0x0a, 0x89, 0x34, 0xaa, 0x1a, 0xce, 0x93, 0x81, 0xd3, 0xb7, 0x8d, 0x46, 0x71, 0xa9, 0x60, 0x59, 0x27, 0x75, 0x53, 0xf4, 0x49, 0xbb, 0xf4, 0xbf, 0x7f, 0x08, 0x86, 0x71, 0xa6, 0xdf, 0x69, 0x5d, 0x8e, 0x46, 0x48, 0x18, 0x7f, 0xd8, 0xe1, 0x0f, 0x51, 0x87, 0xed, 0xfd, 0x21, 0xd8, 0xa3, 0xcd, 0xc2, 0x78, 0xfe, 0xbd, 0x47, 0x91, 0x81, 0xbc, 0x9e, 0x31, 0x9f, 0x87, 0x2c, 0xd3, 0x42, 0xc2, 0x9a, 0x9c, 0x21, 0xe2, 0xb9, 0xfe, 0x14, 0xb6, 0x17, 0x7f, 0x29, 0x52, 0x39, 0xef, 0xad, 0x07, 0x11, 0xe1, 0xa3, 0xf0, 0x67, 0x99, 0xcb, 0x50, 0xcb, 0x92, 0x3a, 0x81, 0xdf, 0x7c, 0x48, 0x3a, 0x7a, 0xe6, 0x8f, 0xd5, 0xe0, 0x24, 0x7f, 0xb8, 0x71, 0xba, 0x9a, 0xf2, 0x5a, 0x11, 0x30, 0x8f, 0x75, 0x99, 0x81, 0xfc, 0xd9, 0xe2, 0x8c, 0xe8, 0x11, 0xd5, 0xc3, 0x12, 0xbd, 0x7a, 0x81, 0xf8, 0xae, 0x95, 0xae, 0xb8, 0x8d, 0x3c, 0xb9, 0xff, 0xdd, 0x32, 0x8c, 0xd8, 0x7e, 0xff, 0xd6, 0x56, 0xc7, 0xd1, 0x46, 0x16, 0xa1, 0x7f, 0x7f, 0x1f, 0x49, 0x4e, 0x24, 0xf2, 0x0b, 0x60, 0x45, 0x81, 0xd1, 0x67, 0x7d, 0xef, 0x4f, 0xd7, 0x98, 0x4b, 0xa8, 0x55, 0x2e, 0x3c, 0x07, 0x7f, 0x08, 0xaa, 0x73, 0xb0, 0x6c, 0x7e, 0x6d, 0xe5, 0x93, 0xf7, 0xb4, 0xd8, 0x8c, 0x02, 0x3c, 0x49, 0xed, 0xab, 0xcd, 0x56, 0x93, 0xbc, 0x52, 0xa8, 0xae, 0xc0, 0x06, 0x9d, 0x81, 0x78, 0xda, 0x26, 0x0a, 0x70, 0xb6, 0x95, 0x46, 0x0f, 0x4e, 0xea, 0x9a, 0x84, 0x49, 0xcf, 0x25, 0x7f, 0x1d, 0x19, 0x34, 0xc4, 0x7b, 0x78, 0xa6, 0xdc, 0x79, 0x8a, 0x7f, 0xe6, 0x96, 0xfa, 0x53, 0x52, 0xfb, 0x06, 0x58, 0x73, 0xa3, 0xb0, 0x33, 0x71, 0x8b, 0x1f, 0x81, 0x6c, 0x9b, 0xcf, 0xf7, 0x94, 0x07, 0x3b, 0x42, 0xf8, 0xe4, 0x7f, 0x7b, 0x52, 0x44, 0x6c, 0x1a, 0xca, 0xa4, 0xbc, 0x9a, 0xe4, 0x38, 0xcd, 0x57, 0x0a, 0xee, 0x93, 0xa1, 0x61, 0xe4, 0x10, 0x30, 0x7d, 0x21, 0x44, 0x81, 0xf3, 0xd4, 0x07, 0x7f, 0xb4, 0x35, 0x19, 0xc3, 0x9c, 0x63, 0x18, 0x94, 0x10, 0x37, 0xb0, 0xdb, 0x63, 0x57, 0x7b, 0x51, 0xd9, 0x0c, 0x1a, 0xa2, 0xe2, 0x17, 0xf0, 0x5f, 0x81, 0x62, 0xe6, 0x21, 0x41, 0x02, 0xd2, 0xa4, 0x59, 0x2b, 0xe8, 0x4f, 0x7f, 0x1c, 0x49, 0xc3, 0xf0, 0xf0, 0x8b, 0x2a, 0xa2, 0xa0, 0x7f, 0xe2, 0x09, 0xb6, 0x0b, 0x69, 0x48, 0xbb, 0x92, 0x7f, 0x00, 0xb7, 0x28, 0x53, 0x27, 0xc9, 0x81, 0xe9, 0x89, 0xd0, 0x24, 0xea, 0x14, 0x2f, 0x15, 0x67, 0xc9, 0x42, 0x23, 0x8f, 0x6c, 0xee, 0xcd, 0x32, 0xb0, 0x5d, 0xd4, 0xe7, 0xec, 0xe5, 0x9f, 0x75, 0x2b, 0x96, 0x7f, 0x06, 0xa6, 0x95, 0x43, 0xcc, 0x2c, 0x30, 0x9f, 0xee, 0xfd, 0x9e, 0xc4, 0xfc, 0x7f, 0x98, 0xf1, 0x1a, 0x00, 0xac, 0x7c, 0xac, 0x66, 0x45, 0xc5, 0x6e, 0x81, 0x66, 0x07, 0xb3, 0x41, 0xc1, 0x52, 0x95, 0xd3, 0xea, 0x0e, 0x62, 0xfd, 0xc7, 0xb4, 0x81, 0x2d, 0x50, 0x9b, 0x90, 0xd7, 0xa7, 0x66, 0xa8, 0xfd, 0x5a, 0x49, 0x03, 0x95, 0xbf, 0xfd, 0x6e, 0x78, 0x81, 0x77, 0x8d, 0x17, 0xfa, 0xe4, 0x05, 0x1a, 0xee, 0x10, 0xb2, 0xc7, 0x7a, 0xac, 0xf3, 0x81, 0xe4, 0x0b, 0x8d, 0x1f, 0xfe, 0x91, 0x42, 0x49, 0xad, 0xdf, 0x81, 0xb7, 0x19, 0x64, 0x34, 0xe1, 0x3c, 0x36, 0x8b, 0x77, 0x09, 0x75, 0xa3, 0x1c, 0x3e, 0x3f, 0x89, 0x0e, 0x7f, 0x01, 0x20, 0xb9, 0x90, 0x2d, 0x34, 0x5e, 0x29, 0x42, 0xba, 0xfc, 0xae, 0x85, 0x5d, 0xc7, 0x25, 0x7d, 0x4f, 0x7f, 0xe0, 0xc4, 0x83, 0x79, 0x52, 0x14, 0xc5, 0xdc, 0xb3, 0x2d, 0xb0, 0xa3, 0xc6, 0xb7, 0xe7, 0x7f, 0x9c, 0x35, 0x39, 0x7d, 0x0c, 0x78, 0xa8, 0x27, 0x26, 0xfc, 0x4c, 0xec, 0xdb, 0xab, 0x81, 0x8d, 0x7e, 0x26, 0x24, 0xb6, 0xba, 0x87, 0x63, 0x53, 0x3f, 0x10, 0x03, 0x29, 0x4d, 0x08, 0x26, 0xcd, 0xca, 0x1d, 0x4d, 0x7f, 0x7b, 0xf9, 0x13, 0xce, 0x94, 0xbf, 0xf4, 0x5e, 0x23, 0xe1, 0xb3, 0x72, 0x9a, 0xc7, 0xf1, 0x6e, 0x19, 0x8a, 0x1e, 0x4a, 0x81, 0xd3, 0xa2, 0xa5, 0xd2, 0x2a, 0xc6, 0xf5, 0x7f, 0xc1, 0xe4, 0xc4, 0x52, 0xc6, 0x6a, 0x05, 0xbd, 0xba, 0x92, 0xe4, 0x5a, 0xd6, 0xcc, 0x6b, 0x8e, 0x2a, 0xf6, 0x24, 0xcd, 0x7f, 0x2d, 0x1d, 0x5f, 0x4b, 0xf1, 0x72, 0xad, 0x2c, 0xbc, 0x86, 0xee, 0x49, 0x19, 0x9a, 0x7f, 0xd8, 0xdf, 0x27, 0x31, 0xa1, 0x43, 0xa8, 0x24, 0x33, 0x81, 0x9c, 0x7b, 0xb0, 0xa0, 0x66, 0x6a, 0xbe, 0x0d, 0x21, 0xc9, 0xb0, 0x5f, 0xd8, 0xd9, 0x55, 0x34, 0xfd, 0x3b, 0x7e, 0xf6, 0xb6, 0x07, 0x7f, 0x00, 0xe7, 0x8b, };
const int32_t bias12[96] = {-42498, 2752, 23417, -27535, -14636, 12449, -43127, 19596, -37377, -2249, -7151, -7277, 18191, -15455, -49243, -3806, -26064, -46402, -11022, -51759, 21757, -33847, -24461, 30590, 15272, 23175, 35404, -48067, 37921, -47710, -47155, 44522, 21791, -45046, 381, 30754, -14866, 32411, -12278, -10509, 42629, -12793, 17593, -34946, 21249, 4413, 22084, 33737, -25716, -39708, 6240, -8702, -51151, -38197, 36067, 24094, -19228, -51499, 32706, 2808, -6842, -7881, -23143, -30400, -41799, 14298, 20960, -24769, -30969, -54399, -46186, -262, 24578, -40216, 43836, 53126, -15633, 6587, 39150, -33147, -17754, -7391, 35948, 2440, 42328, 53569, 21009, 28845, -31671, -49570, -31592, 50407, -33154, -998, -19995, 6957, };
const float scales12[96] = {0.0014913270781807394, 0.0014349042026161917, 0.0015072084009591774, 0.0015212719942642066, 0.0015621530556265194, 0.001472497474425892, 0.0015177817607832003, 0.0015395586254122072, 0.0014545004595803992, 0.0015406523604976304, 0.0014850171893434254, 0.0014478302891756045, 0.0015571198711236993, 0.0014089669900643209, 0.001477971064891123, 0.0014535539901652874, 0.0013969857036617924, 0.0013422169702643374, 0.0015601740572610003, 0.0012216123214197068, 0.0014716015464404525, 0.001498253572460056, 0.0013610112413866983, 0.0015578793836173075, 0.0014888500844439535, 0.0015153426963028106, 0.0014593963939622742, 0.0014518687812478453, 0.0014790430068830178, 0.0014875718035878, 0.0015675458725408428, 0.0015675816688561703, 0.0014808964399351857, 0.0014591109508053357, 0.001500104779834587, 0.0014553871139090181, 0.0015677419176460304, 0.001562761592987088, 0.0015497995246392111, 0.0015230884254256603, 0.0013748863939851328, 0.001556870595228361, 0.001479716645314467, 0.0015136731598653955, 0.0014911089617723186, 0.0014881581769085675, 0.0014579522073856, 0.0012964408091492637, 0.0015540262719449106, 0.0015075748031401599, 0.0015248921516772698, 0.0014940529768665907, 0.001393459024709481, 0.0015483323393936219, 0.001393071664064084, 0.001528862853318152, 0.0015561095989496615, 0.0015615749358603222, 0.0015253041802498095, 0.0015631154757313626, 0.0015485057567761673, 0.0015380485031355384, 0.0015004135926067134, 0.0014851813330691503, 0.001400389321188094, 0.0015138840428214964, 0.0015469342428913462, 0.0014930785010078807, 0.001522090023532353, 0.001414612421390438, 0.0014415715909239402, 0.0015450153378220248, 0.001366582390721682, 0.0015552920333643562, 0.0012999379978728854, 0.0014887080120214616, 0.0014967734040949178, 0.0014067015284396132, 0.0015193721929279357, 0.0014568169263176204, 0.001559426229574986, 0.0014996505561235133, 0.0015651807191053133, 0.0011903117821822021, 0.0015461220560269967, 0.001504530632552225, 0.0015305129150762439, 0.0015418059106695465, 0.001523168828030295, 0.0014715953330903826, 0.0013285528860951402, 0.001487483611111436, 0.001509355901669127, 0.0015194882991113297, 0.00142907858413805, 0.0010888060440864898, };
const int32_t shift12[96] = {-9, -9, -9, -9, -9, -9, -9, -9, -9, -9, -9, -9, -9, -9, -9, -9, -9, -9, -9, -9, -9, -9, -9, -9, -9, -9, -9, -9, -9, -9, -9, -9, -9, -9, -9, -9, -9, -9, -9, -9, -9, -9, -9, -9, -9, -9, -9, -9, -9, -9, -9, -9, -9, -9, -9, -9, -9, -9, -9, -9, -9, -9, -9, -9, -9, -9, -9, -9, -9, -9, -9, -9, -9, -9, -9, -9, -9, -9, -9, -9, -9, -9, -9, -9, -9, -9, -9, -9, -9, -9, -9, -9, -9, -9, -9, -9, };
const int32_t multiplier12[96] = {1639731463, 1577693856, 1657193162, 1672656247, 1717605449, 1619028095, 1668818694, 1692762610, 1599240168, 1693965185, 1632793667, 1591906238, 1712071404, 1549175589, 1625046371, 1598199514, 1536002025, 1475783166, 1715429517, 1343176952, 1618043012, 1647347224, 1496447685, 1712906497, 1637007980, 1666136915, 1604623305, 1596346607, 1626224984, 1635602495, 1723534914, 1723574272, 1628262855, 1604309457, 1649382648, 1600215055, 1723750468, 1718274543, 1704022598, 1674653434, 1511703577, 1711797322, 1626965657, 1664301240, 1639491642, 1636247219, 1603035405, 1425451744, 1708669956, 1657596026, 1676636652, 1642728621, 1532124400, 1702409411, 1531698493, 1681002484, 1710960598, 1716969800, 1677089682, 1718663641, 1702600085, 1691102213, 1649722192, 1632974145, 1539744342, 1664533108, 1700872187, 1641657173, 1673555679, 1555382806, 1585024726, 1698762329, 1502573229, 1710061675, 1429296944, 1636851770, 1645719762, 1546684687, 1670567393, 1601787150, 1714607272, 1648883224, 1720934400, 1308761645, 1699979179, 1654248925, 1682816747, 1695233527, 1674741837, 1618036180, 1460759346, 1635505527, 1659554364, 1670695053, 1571288520, 1197154906, };
const unsigned char CHWweight13[864] = {0xeb, 0x45, 0xf1, 0x5b, 0xc1, 0x6e, 0x62, 0xec, 0x81, 0xe5, 0xdc, 0x9e, 0x81, 0xbe, 0xfd, 0x6c, 0x8c, 0xa2, 0x7f, 0xb1, 0xea, 0x73, 0x77, 0x98, 0x27, 0x1a, 0x32, 0x6d, 0x12, 0xa4, 0x51, 0x59, 0x55, 0x2a, 0x81, 0x96, 0x52, 0x6e, 0xf6, 0x49, 0x7f, 0x14, 0x77, 0xbc, 0x4f, 0x35, 0x0b, 0x8b, 0xb0, 0x3e, 0x0a, 0xc6, 0x81, 0xa6, 0x54, 0x39, 0x3e, 0x52, 0xa8, 0x01, 0x56, 0x7f, 0x21, 0x30, 0x81, 0x26, 0xd0, 0x64, 0x93, 0xc1, 0xc9, 0x65, 0x30, 0x3f, 0x02, 0x81, 0x62, 0x75, 0x29, 0x5b, 0xd0, 0x81, 0xc1, 0xc2, 0xc8, 0x7d, 0xc4, 0x89, 0x92, 0xaf, 0x79, 0x7f, 0x9a, 0xb6, 0xb2, 0x19, 0xb1, 0xcd, 0x72, 0x58, 0x1b, 0x81, 0xe8, 0x18, 0xce, 0xb8, 0x96, 0xc3, 0x81, 0x61, 0x77, 0x02, 0xa2, 0x28, 0x19, 0xc4, 0x0f, 0x56, 0x37, 0xb5, 0xeb, 0xed, 0x8f, 0x7f, 0xfa, 0x06, 0xee, 0x01, 0xee, 0x6c, 0x27, 0xdd, 0xa5, 0x81, 0xba, 0x57, 0x24, 0xa8, 0xd1, 0x7f, 0x3f, 0xc4, 0xc6, 0xb0, 0xf6, 0x86, 0x81, 0x7b, 0x8b, 0xe6, 0x26, 0xd2, 0x4f, 0xda, 0xf3, 0xb6, 0xce, 0x0b, 0x89, 0x7a, 0x7f, 0x51, 0xb3, 0xfa, 0xc0, 0x68, 0xa1, 0x8a, 0x7f, 0x0f, 0x2b, 0xea, 0x57, 0x57, 0xd3, 0xb5, 0x81, 0x1c, 0x08, 0xe2, 0x2b, 0xba, 0x3f, 0x7f, 0x24, 0xe8, 0x7d, 0x9e, 0xa6, 0x31, 0x81, 0x3b, 0x52, 0x76, 0x66, 0x27, 0x25, 0xb9, 0x07, 0x7f, 0x06, 0x45, 0x2d, 0x12, 0x7d, 0x95, 0xd2, 0xd4, 0x88, 0x81, 0xfc, 0x17, 0xd0, 0x01, 0xcf, 0x61, 0x69, 0x1f, 0x6d, 0x4b, 0x55, 0xad, 0x7f, 0xaa, 0x86, 0x54, 0x85, 0xa6, 0x7f, 0x99, 0x88, 0x7f, 0xb3, 0x41, 0x81, 0x99, 0xae, 0x61, 0xbb, 0x2b, 0x58, 0xe8, 0x4f, 0x08, 0x5c, 0x4a, 0xd7, 0x4f, 0xe2, 0x54, 0x81, 0x3c, 0x91, 0xcb, 0xf3, 0x2d, 0x18, 0x7f, 0x17, 0x01, 0x00, 0xb2, 0x2f, 0x3c, 0x7f, 0xd8, 0xe2, 0x07, 0x3c, 0xf1, 0x28, 0xd2, 0x1f, 0x9e, 0x6b, 0x7f, 0x2b, 0xc9, 0xfc, 0x79, 0x04, 0x9d, 0xd5, 0x1a, 0x81, 0x98, 0x01, 0xa1, 0x47, 0xc9, 0x02, 0xaa, 0xa2, 0xc8, 0x81, 0xcb, 0xd2, 0x98, 0x03, 0x2f, 0xbc, 0xc8, 0x81, 0xcf, 0xd0, 0x3c, 0x38, 0xcf, 0x06, 0x1c, 0xb2, 0x21, 0x42, 0x64, 0x7f, 0x55, 0x7f, 0xa5, 0xaf, 0xf3, 0xeb, 0x93, 0xb7, 0x82, 0x3c, 0xf8, 0x7f, 0x2a, 0xf9, 0x48, 0xf6, 0xc5, 0x87, 0xa5, 0xb0, 0xb4, 0xbf, 0xe5, 0x7f, 0x50, 0xdb, 0xc2, 0x10, 0x8f, 0xf1, 0xd9, 0xbf, 0x79, 0x8f, 0x1f, 0x81, 0xc1, 0x1d, 0x40, 0xad, 0xe9, 0x23, 0xa6, 0x7f, 0x32, 0x07, 0x81, 0x2d, 0x14, 0xff, 0x58, 0x57, 0x45, 0x88, 0x7f, 0x92, 0x4f, 0x1e, 0xb8, 0x18, 0xa9, 0xeb, 0xcc, 0x21, 0x7f, 0xa6, 0x2c, 0xd6, 0xab, 0x97, 0x7f, 0x88, 0x70, 0x23, 0x7b, 0xd5, 0x7a, 0xf3, 0x25, 0x9f, 0x7f, 0x36, 0x90, 0x5f, 0x23, 0xa5, 0x96, 0x35, 0x7f, 0x2b, 0xd1, 0x0a, 0x81, 0xac, 0x07, 0x42, 0x04, 0xfe, 0x11, 0xc1, 0x5d, 0x46, 0x82, 0xf8, 0x15, 0x3f, 0xa7, 0x81, 0x7f, 0xfa, 0x7b, 0x42, 0x4e, 0x92, 0x84, 0x2a, 0x69, 0x17, 0x08, 0x0c, 0x58, 0x4c, 0x81, 0xd9, 0x37, 0x91, 0x89, 0x91, 0x7f, 0x13, 0x2f, 0x49, 0x7d, 0x83, 0x73, 0x52, 0x04, 0x5a, 0xaf, 0x86, 0x8b, 0x07, 0xbf, 0x7f, 0x53, 0x81, 0xf1, 0x69, 0x40, 0x9e, 0x07, 0xe2, 0x5c, 0x53, 0x17, 0x04, 0x3c, 0x2e, 0x4f, 0xb8, 0x0c, 0x81, 0x12, 0x44, 0x7f, 0x16, 0x0e, 0x0e, 0xba, 0x66, 0x91, 0x34, 0x95, 0x3e, 0xb5, 0x58, 0x8a, 0xcd, 0x81, 0xdd, 0xec, 0x32, 0x26, 0xb8, 0x29, 0x6d, 0x81, 0x61, 0x6b, 0x7f, 0x81, 0x8a, 0x37, 0xa3, 0xd1, 0x00, 0x19, 0x98, 0xa5, 0x77, 0xb1, 0xa3, 0x75, 0x2b, 0x7f, 0x6a, 0x69, 0xc5, 0xa3, 0xf6, 0xef, 0xbd, 0xf9, 0x7f, 0x2e, 0xfd, 0xd1, 0xa6, 0x4c, 0x7f, 0xc3, 0x5b, 0xc3, 0x06, 0xdf, 0x9a, 0x5d, 0xec, 0x81, 0xb7, 0xc2, 0xad, 0xf6, 0x0c, 0xbd, 0x61, 0x95, 0x81, 0x60, 0x1f, 0x09, 0x3a, 0x2c, 0x71, 0x16, 0xb8, 0x4e, 0xf3, 0x94, 0x5e, 0x81, 0x7c, 0x7c, 0x81, 0x03, 0x5a, 0xce, 0x68, 0xea, 0xb2, 0xfa, 0xe9, 0xd2, 0x69, 0x1d, 0x67, 0x81, 0x2e, 0x5e, 0x81, 0xfa, 0xc7, 0x60, 0x81, 0x8d, 0x5c, 0x31, 0x81, 0x46, 0x79, 0xc6, 0xaf, 0x26, 0x8c, 0x05, 0xed, 0xf4, 0x7f, 0x75, 0x76, 0xb5, 0x60, 0xa4, 0x7a, 0x8d, 0xed, 0x7f, 0x1f, 0xe9, 0x8a, 0xe7, 0xbb, 0x7f, 0x81, 0xd4, 0x78, 0x0a, 0x45, 0xe3, 0xe8, 0x6a, 0x6c, 0x7f, 0x0b, 0x88, 0x55, 0x14, 0x2c, 0x84, 0x76, 0xca, 0x38, 0x7f, 0xd0, 0xfa, 0x7a, 0xf4, 0x39, 0x81, 0xe4, 0x59, 0x1b, 0x60, 0xd2, 0xe3, 0x17, 0x1b, 0xe8, 0x7f, 0x3c, 0x28, 0xa6, 0xb4, 0xf5, 0x7f, 0xd3, 0x83, 0x6c, 0xdb, 0x1f, 0xe5, 0x3f, 0x0e, 0xfc, 0x9b, 0xd7, 0x94, 0xfa, 0x7f, 0x90, 0x89, 0xc8, 0x18, 0x81, 0x9b, 0xc4, 0x85, 0x7a, 0xf2, 0xb0, 0xcb, 0xa9, 0xdb, 0x28, 0x81, 0xb7, 0x95, 0x85, 0xe5, 0x22, 0x89, 0x81, 0x22, 0x4c, 0xbe, 0x5e, 0x93, 0xa2, 0x81, 0xe8, 0x40, 0x8d, 0xa5, 0xc5, 0x51, 0x13, 0x44, 0x97, 0x07, 0x7f, 0x54, 0x01, 0x5f, 0xe3, 0xfb, 0x4e, 0x8f, 0x0d, 0x7f, 0xa8, 0xc4, 0xa8, 0x08, 0xb7, 0xa4, 0x3c, 0x7f, 0x4c, 0x17, 0xe5, 0x21, 0xb7, 0x4a, 0x35, 0xd0, 0x89, 0xa6, 0x7f, 0xab, 0xfa, 0x1f, 0xcd, 0x25, 0x70, 0x03, 0x00, 0x56, 0xc6, 0x26, 0x79, 0x81, 0xe0, 0xb5, 0x6b, 0x01, 0x7f, 0x4e, 0xe5, 0x34, 0x90, 0x44, 0x81, 0x79, 0x40, 0x89, 0x4e, 0xb7, 0x1d, 0x44, 0x37, 0x3b, 0x90, 0x75, 0x6b, 0xdc, 0xab, 0xfa, 0x81, 0x56, 0x45, 0x3a, 0x93, 0x29, 0xe9, 0x27, 0x81, 0x23, 0x5c, 0x74, 0x31, 0xe5, 0x9a, 0x31, 0x9c, 0x9e, 0x7f, 0xba, 0x36, 0x0f, 0x2c, 0x38, 0x7f, 0xe1, 0x34, 0xff, 0x78, 0xef, 0x81, 0xe8, 0x67, 0x26, 0xdb, 0x52, 0xb5, 0xad, 0x61, 0x00, 0x7f, 0x91, 0x68, 0xc9, 0xe8, 0x7e, 0xe2, 0x9c, 0xfb, 0xdf, 0xb3, 0x81, 0xeb, 0xff, 0x3a, 0xaf, 0x1d, 0x59, 0x7c, 0x3d, 0x4e, 0x4e, 0x7f, 0xda, 0xe8, 0x7f, 0x77, 0xf6, 0x5e, 0x28, 0xc2, 0xaa, 0x49, 0x4d, 0xc7, 0x6b, 0x81, 0x53, 0x9b, 0x9f, 0x00, 0xa6, };
const int32_t offsetBias13[96] = {-34287, -39129, -1485, 23476, 30050, 38134, 22790, -4098, 8894, -7047, 30454, 50702, -9999, 26558, -15847, 37803, 12974, -39219, 35377, -41662, -1668, -85, 38379, 1603, 33998, 9418, -34440, -30851, -35535, -6946, -32059, 42569, -33311, -24274, 22083, 10328, 35909, 16550, -8403, -23254, -10067, 9297, 21348, -26163, -29402, -20155, 9232, 3352, 18448, 30681, 37773, -4853, -20571, -17882, 14016, -14963, 26810, 6527, -2896, 12473, -29153, -5672, 26318, 33053, -30437, -45255, -12572, -2212, 383, -8358, -15136, -36687, 36958, 14881, 23895, 31417, -13505, -8144, -34412, -16523, -39381, 5471, 25541, 10914, -21080, 31448, -18048, 4446, 10882, -4834, 8532, 16067, -5316, -2154, 27859, -30309, };
const int32_t offsetRBias13[96] = {0, 0, 0, 0, 0, 0, 0, 0, 0, 0, 0, 0, 0, 0, 0, 0, 0, 0, 0, 0, 0, 0, 0, 0, 0, 0, 0, 0, 0, 0, 0, 0, 0, 0, 0, 0, 0, 0, 0, 0, 0, 0, 0, 0, 0, 0, 0, 0, 0, 0, 0, 0, 0, 0, 0, 0, 0, 0, 0, 0, 0, 0, 0, 0, 0, 0, 0, 0, 0, 0, 0, 0, 0, 0, 0, 0, 0, 0, 0, 0, 0, 0, 0, 0, 0, 0, 0, 0, 0, 0, 0, 0, 0, 0, 0, 0, };
const float scales13[96] = {0.0017591905886844923, 0.0019450456734771554, 0.0015693561765725101, 0.0019636094379566157, 0.001750336922957069, 0.0019452411941205715, 0.0016447105339644104, 0.0019555837977701883, 0.0019022597946332573, 0.0019655234360040474, 0.0017423474058670934, 0.0015346881745593774, 0.00154155962920772, 0.0019155048715472894, 0.0019649624758800222, 0.0018557946205963944, 0.0019438835969713992, 0.0019597902096036095, 0.0018020953581079743, 0.0017980702631761605, 0.0018828066304198002, 0.001634435441927094, 0.0016697066645800036, 0.001953534075078807, 0.0017825271611213505, 0.0015739629234991321, 0.001909613124374073, 0.0016399861239420645, 0.0018670154012704308, 0.001332149216818861, 0.001780579494945187, 0.001725771989886014, 0.0018011787783742202, 0.0018703062854991208, 0.0018810502763709615, 0.0019341531570582534, 0.00197599282120092, 0.0019203655322780964, 0.0015834536533499014, 0.0011730237328843828, 0.0019601975588902964, 0.0015858530335865488, 0.0019040954090684856, 0.0019076291597466205, 0.0019582204331014923, 0.0019139145785292263, 0.0016475959978096222, 0.0019522033072197178, 0.001860560940424818, 0.0016466283898182593, 0.0018083036207622366, 0.0017673151289990692, 0.0018680801558415721, 0.00158549741397682, 0.0019544346975223807, 0.0017774543210375986, 0.0018633643382062462, 0.0017600920879022519, 0.001746645528280341, 0.0019159067848340246, 0.0018164670898506595, 0.0018377705983056646, 0.0018011984181159804, 0.001926979741380348, 0.0018484428690491133, 0.0013335871264834455, 0.0017659508683660853, 0.00197225916600844, 0.001929994967805047, 0.0017305302433919287, 0.0019585206405826837, 0.0018817855392031081, 0.0018981384298958513, 0.0018257177589293778, 0.0016212036919806849, 0.001840209784090344, 0.0019336469076434175, 0.001660478966984951, 0.0018877472529563453, 0.0018331042307344137, 0.0016929231189534177, 0.001788667912163312, 0.001972217782266874, 0.0019423010195661705, 0.0019524217993467997, 0.001596045182785896, 0.0018128332115605148, 0.001562930824629863, 0.0018957316847560436, 0.0019660416095478093, 0.0018767958173121627, 0.0017640491451572538, 0.0017270366489714997, 0.0017925572824511761, 0.0017860137413482937, 0.001848870910206583, };
const int32_t shift13[96] = {-9, -9, -9, -8, -9, -9, -9, -8, -9, -8, -9, -9, -9, -9, -8, -9, -9, -8, -9, -9, -9, -9, -9, -8, -9, -9, -9, -9, -9, -9, -9, -9, -9, -9, -9, -9, -8, -9, -9, -9, -8, -9, -9, -9, -8, -9, -9, -9, -9, -9, -9, -9, -9, -9, -8, -9, -9, -9, -9, -9, -9, -9, -9, -9, -9, -9, -9, -8, -9, -9, -8, -9, -9, -9, -9, -9, -9, -9, -9, -9, -9, -9, -8, -9, -9, -9, -9, -9, -9, -8, -9, -9, -9, -9, -9, -9, };
const int32_t multiplier13[96] = {1934250508, 2138600335, 1725525364, 1079505705, 1924515799, 2138815312, 1808378356, 1075093562, 2091556763, 1080557936, 1915731232, 1687407493, 1694962737, 2106119879, 1080249545, 2040467764, 2137322618, 1077406062, 1981424801, 1976999162, 2070167783, 1797080773, 1835861893, 1073966715, 1959909340, 1730590536, 2099641835, 1803183813, 2052805143, 1464713554, 1957767859, 1897506370, 1980417011, 2056423508, 2068236651, 2126623886, 1086313542, 2111464232, 1741025704, 1289753234, 1077630004, 1743663850, 2093575043, 2097460443, 1076543068, 2104371334, 1811550957, 2146470236, 2045708388, 1810487061, 1988250858, 1943183534, 2053975853, 1743272842, 1074461838, 1954331694, 2048790757, 1935241717, 1920457068, 2106561788, 1997226687, 2020650142, 1980438605, 2118736632, 2032384428, 1466294552, 1941683514, 1084260943, 2122051909, 1902738125, 1076708109, 2069045081, 2087025275, 2007397905, 1782532310, 2023332055, 2126067259, 1825715932, 2075600055, 2015519417, 1861388654, 1966661168, 1084238192, 2135582556, 2146710471, 1754870237, 1993231195, 1718460615, 2084379031, 1080842805, 2063558824, 1939592547, 1898896877, 1970937576, 1963742876, 2032855064, };
const unsigned char weight14[1536] = {0xbe, 0x40, 0xd0, 0x97, 0x1e, 0xf4, 0x0b, 0x5e, 0xa0, 0x1a, 0xfc, 0x61, 0xf1, 0x94, 0x58, 0x23, 0xf8, 0x6b, 0xc4, 0x7e, 0x46, 0xd5, 0xf1, 0x12, 0x25, 0x0d, 0x3d, 0x96, 0x73, 0x98, 0xc1, 0xa5, 0x77, 0x9f, 0xb0, 0xd4, 0xe8, 0x3a, 0x89, 0x9c, 0x40, 0x16, 0xb4, 0x34, 0xc3, 0xfe, 0x1d, 0x5a, 0x7c, 0x3d, 0x9c, 0xb7, 0x6c, 0x4e, 0x60, 0xb0, 0x2c, 0x34, 0xdb, 0x96, 0xd3, 0xfa, 0x66, 0x29, 0x91, 0x5f, 0x40, 0xf9, 0x35, 0x83, 0xa0, 0x3b, 0x75, 0xdd, 0xfb, 0x0b, 0x6b, 0xd8, 0x5a, 0x2c, 0xa2, 0x75, 0xd5, 0x8f, 0x7c, 0x09, 0x6e, 0x23, 0xa7, 0x7c, 0xb3, 0xa3, 0x5c, 0x72, 0x11, 0x81, 0x87, 0xa4, 0xfb, 0x2f, 0x06, 0x7f, 0xe2, 0x4e, 0xf2, 0x0d, 0x88, 0x20, 0x81, 0x19, 0x05, 0xde, 0x0e, 0xc0, 0xe5, 0x3c, 0xd1, 0x7c, 0x1c, 0x53, 0x30, 0xcd, 0x02, 0xa0, 0x42, 0x7b, 0x69, 0x09, 0x9f, 0x88, 0xb5, 0xc1, 0x90, 0x15, 0xe7, 0xef, 0x68, 0xbf, 0x52, 0x2d, 0x3b, 0xbb, 0x0c, 0xd0, 0x36, 0x86, 0xd6, 0xbc, 0x84, 0x30, 0x4b, 0xcd, 0xf5, 0xf4, 0x29, 0x20, 0x6a, 0x94, 0x60, 0xf9, 0x57, 0x22, 0xfa, 0x4d, 0xbc, 0x5d, 0xbb, 0xf8, 0x9f, 0x14, 0xf0, 0x69, 0xa5, 0x3c, 0xc3, 0xb5, 0x55, 0x6b, 0x36, 0x37, 0x72, 0xc5, 0x76, 0x6c, 0xa3, 0xed, 0xe8, 0x4a, 0xb4, 0x6a, 0xf8, 0x4e, 0x09, 0xa9, 0xd4, 0x81, 0x43, 0x9c, 0xba, 0xcb, 0x59, 0x97, 0x5b, 0x56, 0xbf, 0x74, 0xf8, 0xf3, 0xb8, 0xf5, 0xff, 0x2f, 0xcc, 0xcc, 0x13, 0xea, 0xf5, 0xe1, 0xfc, 0x90, 0x56, 0xab, 0xa2, 0x48, 0x14, 0x52, 0x55, 0xbd, 0xbe, 0xfc, 0x35, 0x0e, 0xd2, 0x0f, 0xa4, 0x29, 0x22, 0x24, 0xb7, 0x72, 0x8a, 0x01, 0x6e, 0x97, 0xd0, 0x0c, 0xc3, 0xa4, 0x03, 0x7f, 0xd5, 0x4f, 0xc3, 0xe2, 0x13, 0x7b, 0xb7, 0xfd, 0x31, 0x14, 0x34, 0x2c, 0x0b, 0x78, 0xe9, 0x71, 0x65, 0x68, 0x75, 0x39, 0xbc, 0x0f, 0x8b, 0xfe, 0x75, 0x5d, 0x76, 0x17, 0x65, 0x3f, 0x73, 0xfe, 0x06, 0x42, 0x70, 0xc1, 0x27, 0xd5, 0x82, 0xd5, 0xae, 0x16, 0x6f, 0x4c, 0xe1, 0x4a, 0x5c, 0x3f, 0xd1, 0x94, 0xe2, 0xdc, 0x69, 0x77, 0xe1, 0x94, 0xe8, 0x97, 0x70, 0x1c, 0xc6, 0xdb, 0xc6, 0x21, 0x19, 0xc8, 0x5d, 0xe1, 0xd3, 0x9c, 0xd4, 0xc4, 0x86, 0x48, 0xd3, 0x11, 0x12, 0xe2, 0x8c, 0x93, 0xe2, 0xba, 0x15, 0xe4, 0x96, 0xc6, 0x29, 0x27, 0xf3, 0x0a, 0x48, 0x7d, 0xd2, 0xe3, 0x7e, 0xa3, 0x95, 0x8d, 0xe7, 0xd6, 0xbc, 0xf7, 0x81, 0x1c, 0x2f, 0x52, 0x62, 0x84, 0x8a, 0x69, 0xcd, 0x3b, 0x07, 0x51, 0x24, 0x04, 0x0a, 0xa8, 0x1e, 0xc2, 0x15, 0xa2, 0xbf, 0xa3, 0x30, 0xe6, 0x7a, 0x85, 0xd6, 0x36, 0xf2, 0x9b, 0xd3, 0x8e, 0xc0, 0x35, 0x9a, 0xf3, 0x5b, 0x6f, 0x62, 0x9c, 0x21, 0x36, 0x89, 0x2f, 0x1a, 0x53, 0xd5, 0x2d, 0xe6, 0x74, 0xba, 0xca, 0x95, 0xc7, 0xf3, 0x3e, 0xac, 0x5b, 0x1d, 0x5f, 0x17, 0xb3, 0xeb, 0x92, 0x65, 0x86, 0x9e, 0xdf, 0x9b, 0xad, 0xf8, 0x19, 0x6e, 0xe7, 0x32, 0x3f, 0xf1, 0xf9, 0xb6, 0xab, 0x25, 0x2b, 0x39, 0x89, 0x67, 0xa8, 0x0d, 0xea, 0x13, 0x7f, 0x37, 0x77, 0x31, 0x45, 0x6f, 0xb2, 0xb8, 0xe6, 0x85, 0x74, 0xd7, 0x88, 0x3e, 0x6f, 0xc0, 0xc4, 0xfb, 0xfb, 0x47, 0xf4, 0x15, 0xd5, 0x30, 0xbb, 0x97, 0x1d, 0xe6, 0x5f, 0x48, 0x60, 0x62, 0x3d, 0xcb, 0x63, 0xa7, 0x8b, 0xeb, 0x85, 0x8b, 0x61, 0xa7, 0xd0, 0xee, 0x29, 0xe5, 0x96, 0x46, 0x62, 0x5b, 0xda, 0x81, 0x1e, 0xf9, 0x8b, 0x0f, 0xfb, 0x85, 0xa1, 0x4b, 0xdb, 0xd3, 0x60, 0x69, 0x5d, 0x2b, 0x3e, 0xca, 0x9a, 0x35, 0x8c, 0x3b, 0x26, 0x35, 0xa8, 0x47, 0xe0, 0xef, 0xe3, 0x57, 0xa5, 0x98, 0x94, 0xc3, 0x2d, 0x17, 0xff, 0x1f, 0x9d, 0x34, 0xa1, 0x21, 0xa9, 0x55, 0x37, 0x2c, 0xce, 0xbf, 0xd4, 0xbd, 0x36, 0x19, 0xe2, 0xf9, 0xbf, 0xdb, 0x18, 0xf3, 0x20, 0xa9, 0x67, 0x09, 0x6d, 0x3c, 0xdd, 0xd7, 0xd2, 0xb7, 0x27, 0xa3, 0xd4, 0x3e, 0x57, 0x9f, 0x20, 0xaf, 0xfd, 0xbb, 0xeb, 0x85, 0xff, 0x1c, 0xc9, 0x62, 0x46, 0x5c, 0x79, 0xaf, 0xd9, 0xbd, 0x9d, 0x64, 0xa2, 0xa5, 0x48, 0x74, 0xe4, 0xd6, 0xe1, 0x65, 0xed, 0xc1, 0x10, 0x54, 0xf9, 0x43, 0x4d, 0x15, 0x99, 0x4d, 0x0b, 0x1b, 0x51, 0xee, 0xcd, 0xa0, 0xee, 0x18, 0x02, 0x2d, 0x65, 0x0a, 0x65, 0x18, 0x22, 0x81, 0x2a, 0xb1, 0x86, 0x3c, 0x29, 0xa5, 0x50, 0x30, 0x77, 0x41, 0x2b, 0x0b, 0x02, 0xd7, 0x29, 0x1c, 0xd2, 0xbc, 0x8a, 0xf9, 0x75, 0x4a, 0x27, 0x6d, 0xc4, 0x75, 0x4a, 0x69, 0xf8, 0xb6, 0x90, 0x8f, 0x8d, 0xce, 0x67, 0xf0, 0x26, 0x53, 0x25, 0x8c, 0xb2, 0xc5, 0xd6, 0x65, 0xe8, 0xed, 0x19, 0x35, 0xf0, 0x8f, 0x64, 0x9d, 0xa7, 0x6e, 0x5c, 0xf2, 0xce, 0x42, 0x37, 0x9b, 0x6d, 0x81, 0x21, 0x2e, 0x27, 0xe7, 0xca, 0x4d, 0x7c, 0x1b, 0x2a, 0x1c, 0xec, 0x1c, 0xde, 0x76, 0xc0, 0x92, 0xfc, 0xf8, 0x34, 0x58, 0x37, 0xc3, 0x45, 0x63, 0x54, 0xfb, 0x19, 0x98, 0x0c, 0x16, 0xae, 0x6b, 0x5f, 0x41, 0x0d, 0xf0, 0x4c, 0x30, 0xfc, 0x2e, 0x26, 0x8e, 0xd7, 0xdc, 0x43, 0x0f, 0x52, 0x25, 0x51, 0x07, 0xca, 0x35, 0x11, 0x5c, 0x2f, 0x51, 0x6e, 0x19, 0xea, 0xa9, 0x32, 0xa3, 0x5a, 0x0a, 0xf5, 0x6c, 0xf3, 0x03, 0xc3, 0x83, 0xd9, 0x83, 0x2c, 0x54, 0x4c, 0x33, 0xb8, 0x39, 0xeb, 0x3f, 0x78, 0xfd, 0xf9, 0x90, 0x05, 0x10, 0x9c, 0x05, 0x5c, 0x93, 0xd2, 0xae, 0x6c, 0x69, 0x9c, 0xfb, 0xfc, 0xdd, 0xc9, 0x6d, 0x18, 0x28, 0x71, 0xb5, 0x98, 0x06, 0x65, 0xd9, 0x4e, 0x09, 0x22, 0x38, 0x68, 0x3b, 0xe3, 0xd8, 0x6f, 0xbd, 0x86, 0x2b, 0x25, 0xb9, 0xe0, 0x95, 0xa5, 0x3b, 0x31, 0x6a, 0x6a, 0x51, 0xb1, 0x60, 0x9a, 0x02, 0xf7, 0x60, 0x93, 0x2f, 0x1b, 0xb7, 0x48, 0xce, 0x54, 0x3f, 0xbf, 0x14, 0xab, 0x00, 0x12, 0x3d, 0xcd, 0x47, 0x50, 0x81, 0xd7, 0x4c, 0x31, 0xfd, 0xc2, 0xca, 0x4e, 0xdd, 0x31, 0x18, 0x78, 0xa5, 0x57, 0x7a, 0xb2, 0x30, 0x85, 0xce, 0x34, 0x2c, 0xbc, 0x77, 0x0c, 0x84, 0xd5, 0x52, 0x25, 0x16, 0x11, 0x52, 0x11, 0x09, 0xde, 0xb4, 0x3c, 0x26, 0xe0, 0xa3, 0xdb, 0xde, 0xd7, 0x92, 0xc3, 0x81, 0x0a, 0x09, 0x82, 0xe1, 0x5e, 0xd0, 0xc6, 0x34, 0x84, 0xa4, 0x8d, 0xfc, 0xf3, 0x51, 0xa3, 0x0b, 0xa4, 0xba, 0x88, 0x56, 0x6f, 0xb0, 0xe1, 0xf2, 0x6f, 0x6d, 0xca, 0xfa, 0x60, 0xc3, 0x1f, 0x02, 0x8f, 0x05, 0x5a, 0xd5, 0xae, 0xc3, 0xe2, 0x8d, 0xf5, 0x1c, 0x71, 0x27, 0x34, 0x50, 0x3f, 0x79, 0x2a, 0xfc, 0x27, 0xfe, 0x04, 0x61, 0x8b, 0x3e, 0x7c, 0xa2, 0x51, 0xa5, 0xac, 0xff, 0xd8, 0x15, 0x46, 0x60, 0xf4, 0x0d, 0x83, 0x79, 0x07, 0x2d, 0x9d, 0xd6, 0x3e, 0xf0, 0xf9, 0xca, 0xa3, 0xc0, 0x8c, 0xaf, 0xf3, 0xb7, 0xeb, 0x46, 0xe1, 0x72, 0xd3, 0x28, 0x1d, 0x35, 0x71, 0xb9, 0x4a, 0xfa, 0xdd, 0x74, 0x5e, 0xfe, 0x54, 0x99, 0x84, 0x4e, 0xa8, 0x0e, 0xf2, 0xe4, 0x49, 0xdd, 0x97, 0xb9, 0x14, 0x63, 0x9f, 0x65, 0xfe, 0x76, 0x9a, 0x34, 0x27, 0xbb, 0xde, 0x15, 0x04, 0xcd, 0x23, 0xf0, 0xc3, 0x8e, 0xf5, 0xc7, 0x94, 0x2d, 0x01, 0x00, 0xbb, 0xee, 0xd1, 0xa9, 0x9a, 0xe6, 0x45, 0xcb, 0x18, 0x81, 0x47, 0xde, 0x6a, 0xcd, 0x51, 0x99, 0xd9, 0x60, 0x6d, 0x6d, 0x52, 0x6b, 0x35, 0x62, 0x01, 0x61, 0x56, 0xf8, 0x76, 0xf1, 0xcb, 0x36, 0x3c, 0xd3, 0xbe, 0x68, 0xe8, 0x0b, 0xad, 0xae, 0x8c, 0x2c, 0xc0, 0x49, 0xf5, 0x1b, 0xa6, 0xe3, 0x78, 0x96, 0x41, 0xb8, 0xc5, 0x8a, 0x86, 0xef, 0xd2, 0x08, 0x0f, 0x92, 0x13, 0xd3, 0xcb, 0x84, 0x53, 0x38, 0x1b, 0xb3, 0xf6, 0x74, 0x38, 0x18, 0xe7, 0x28, 0xc5, 0xec, 0x77, 0xba, 0x79, 0x73, 0x3e, 0xc9, 0xf7, 0x57, 0x35, 0xec, 0x2e, 0x23, 0x0a, 0xcd, 0x9c, 0x6f, 0xc7, 0x83, 0xda, 0x64, 0xf1, 0xde, 0x81, 0xf3, 0x58, 0xac, 0xd3, 0xe4, 0xe9, 0x99, 0xcc, 0x7c, 0xd0, 0xc4, 0x21, 0xb3, 0x88, 0xf9, 0x4d, 0xc7, 0xf1, 0x7f, 0x7e, 0xb9, 0x7d, 0x57, 0x3f, 0xe3, 0x02, 0x2e, 0xb4, 0x24, 0x5f, 0x2e, 0x85, 0x9e, 0x2e, 0x0d, 0x0f, 0xab, 0xe4, 0xce, 0xf3, 0x33, 0x2d, 0x6f, 0xfa, 0xac, 0x27, 0x98, 0xfe, 0xd9, 0x7b, 0x5f, 0x85, 0xf5, 0xd1, 0x93, 0xa1, 0x3f, 0x40, 0x6e, 0x73, 0x13, 0x95, 0x90, 0x91, 0xf5, 0x5d, 0xbe, 0x57, 0xeb, 0x9b, 0xa2, 0x0f, 0xff, 0xe5, 0x84, 0xf6, 0xdb, 0xaf, 0xc0, 0x25, 0xb4, 0x14, 0x63, 0x6a, 0x7c, 0x05, 0x68, 0x0f, 0xb5, 0x90, 0x81, 0x53, 0x4b, 0x68, 0x45, 0x13, 0xa6, 0x16, 0x4c, 0x65, 0xdc, 0x37, 0xe0, 0x0f, 0x35, 0x9e, 0xb9, 0xc8, 0x53, 0xad, 0xb1, 0x89, 0x67, 0x91, 0x4f, 0xa8, 0xcc, 0x98, 0x1c, 0x04, 0xa3, 0x00, 0xb7, 0xe0, 0xe8, 0xdb, 0x5d, 0xb5, 0x59, 0xe4, 0x50, 0xb4, 0xf9, 0xf8, 0x3e, 0x08, 0x42, 0x73, 0x6e, 0x7c, 0x86, 0x1a, 0xa7, 0xfc, 0xf2, 0xa5, 0x21, 0x67, 0x8a, 0xaa, 0x3d, 0x86, 0x28, 0xef, 0x6c, 0x1d, 0xc3, 0x2a, 0xbe, 0xed, 0xd4, 0x52, 0xdf, 0xd6, 0xf8, 0x6f, 0xb4, 0x33, 0x15, 0xd0, 0xdb, 0x99, 0x5c, 0x21, 0x6e, 0x31, 0x25, 0xd8, 0x62, 0xcf, 0x4a, 0x46, 0x35, 0xdb, 0x4c, 0x4c, 0x7a, 0xe7, 0x32, 0x9c, 0xfd, 0xcb, 0xee, 0x98, 0x98, 0xd2, 0x07, 0x41, 0xf8, 0x5f, 0x97, 0x19, 0x67, 0x29, 0x32, 0x9c, 0x2c, 0x5a, 0xd8, 0x8d, 0x7b, 0x50, 0xfa, 0x73, 0x1c, 0xc2, 0xe5, 0x1c, 0x13, 0xdc, 0x24, 0x18, 0xf8, 0xab, 0x7f, 0xa1, 0xf5, 0x6e, 0xdb, 0x9d, 0x68, 0xab, 0xc5, 0xfb, 0x52, 0xdd, 0x50, 0xc7, 0xc1, 0xba, 0xac, 0x29, 0x23, 0xfd, 0xd5, 0x53, 0xea, 0xfc, 0x7e, 0x50, 0xac, 0x06, 0x2d, 0x1e, 0xd1, 0x23, 0xe3, 0xae, 0x38, 0xb5, 0xdf, 0x50, 0x0e, 0x06, 0xd0, 0x31, 0x28, 0x33, 0x90, 0x0e, 0xf7, 0x4d, 0xc9, 0x99, 0x63, 0xe3, 0xa7, 0x32, 0x03, 0xc6, 0x4e, 0x46, 0x4e, 0x3b, 0x15, 0xde, 0x77, 0x2f, 0xc4, 0x09, 0xaa, 0x6d, 0xc6, 0xe9, 0xa3, 0x97, 0xe9, 0x1e, 0xf2, 0xad, 0x97, 0xe1, 0x05, 0xd5, 0x6c, 0xf2, 0xf8, 0xc0, 0xdd, 0xf6, 0x36, 0x2d, 0xb5, 0x3d, 0x9c, 0xd9, 0x0a, 0x4a, 0x4c, 0x18, 0x3d, 0x68, 0x7f, 0x07, 0x96, 0x3e, 0x6a, 0x24, 0xe0, 0x2b, 0x1b, 0xe5, 0x3c, 0x8f, 0xbd, 0x1b, 0x4c, 0x7a, 0x91, 0x3c, 0xef, 0xb9, 0xbf, 0xcc, 0x61, 0xda, 0x3b, 0xe1, 0xc7, 0xfb, 0x77, 0x63, 0x6b, 0x4a, 0x1c, 0x30, 0xbd, 0x1f, 0x32, 0x57, 0xd6, 0x67, 0x99, 0xf6, 0x78, 0x92, 0x41, 0x7b, 0x28, 0x15, 0x32, 0x53, 0x59, 0xbe, 0x5e, 0x82, 0x4a, 0xc4, 0xc4, 0xfb, 0x07, 0xa9, 0xc8, 0x77, 0x37, 0x13, 0x64, 0xd7, 0xd0, 0xc3, 0xfa, 0x6c, 0x88, 0x28, 0x3b, 0x34, 0x1f, 0xe0, 0xb5, 0xe5, 0x0a, 0x6a, 0x0f, 0xab, 0x3a, 0xc3, 0xe4, 0x64, 0x9f, 0xfb, 0x47, 0x81, 0x27, 0x72, 0xf3, 0x52, 0xb1, 0x78, 0x6d, 0x3f, 0x17, 0xd7, 0xc0, 0x6c, };
const int32_t bias14[16] = {6182, 7865, 23780, 28673, -17276, 29782, 5703, 19397, -23013, -17080, 4568, -31008, 9637, -10708, 1943, -19428, };
const float scales14[16] = {0.0012483980585155875, 0.0012448505575854921, 0.0012516146616095417, 0.0012507698411939635, 0.0012221494945617558, 0.0012185355960697005, 0.0012262972984836324, 0.001241345747290309, 0.0012529317131121632, 0.0012486473899897045, 0.0012469734629454417, 0.0012346334170149833, 0.0012515132940594089, 0.0012447537315922648, 0.0012508933715417957, 0.0012480648899009933, };
const int32_t shift14[16] = {-9, -9, -9, -9, -9, -9, -9, -9, -9, -9, -9, -9, -9, -9, -9, -9, };
const int32_t multiplier14[16] = {1372628181, 1368727663, 1376164874, 1375235984, 1343767580, 1339794057, 1348328139, 1364874083, 1377612987, 1372902324, 1371061822, 1357493798, 1376053419, 1368621202, 1375371807, 1372261859, };
const unsigned char weight15[1536] = {0xcd, 0x48, 0xa4, 0x00, 0x11, 0x31, 0x50, 0x7f, 0xa9, 0x6d, 0x29, 0xc2, 0x7e, 0x85, 0xb7, 0xe8, 0x49, 0xa9, 0x20, 0x7d, 0x36, 0x81, 0x18, 0x76, 0x41, 0xe7, 0x6c, 0x2e, 0xbc, 0x05, 0xa2, 0xc3, 0x36, 0xcf, 0x73, 0x7f, 0xed, 0xe2, 0xa8, 0xb8, 0xd5, 0x20, 0x59, 0xd0, 0xef, 0xda, 0x95, 0x62, 0xd5, 0xee, 0x1c, 0xd2, 0x81, 0xf5, 0xd8, 0x25, 0xe3, 0x8d, 0x2f, 0x82, 0xac, 0xbc, 0xd9, 0xb8, 0xaa, 0x5a, 0x90, 0xc9, 0x8c, 0xa7, 0x82, 0x9a, 0x1f, 0xc0, 0x86, 0x2b, 0x81, 0x30, 0x9a, 0x0d, 0x02, 0xe8, 0x79, 0xf3, 0xa9, 0xbf, 0xa3, 0xe7, 0x4d, 0x6e, 0xd6, 0x49, 0x8b, 0xdb, 0x81, 0x9e, 0x83, 0x24, 0x26, 0x62, 0x01, 0x06, 0x5b, 0x7f, 0xce, 0x3f, 0x8c, 0x1a, 0x66, 0x9f, 0x45, 0x55, 0x46, 0xa5, 0x5f, 0xba, 0x57, 0xdc, 0x40, 0x83, 0xf5, 0x5a, 0x34, 0x7f, 0xf5, 0xed, 0x77, 0x7d, 0x64, 0x12, 0x88, 0xd1, 0x5b, 0x1e, 0x4a, 0x7f, 0x00, 0xe4, 0x5f, 0x5e, 0x34, 0x4c, 0x52, 0x51, 0xba, 0xb6, 0x56, 0xbc, 0x07, 0x2b, 0x51, 0x7f, 0xae, 0x0c, 0x86, 0xb7, 0xb4, 0xfb, 0x47, 0xbd, 0x98, 0x2b, 0xb9, 0x92, 0xac, 0xa1, 0x5c, 0x8b, 0xe4, 0x17, 0xba, 0xee, 0x93, 0x7f, 0x37, 0x30, 0x10, 0xdb, 0xe6, 0x4b, 0x8a, 0x81, 0xea, 0xbe, 0x85, 0xc4, 0xaa, 0xa7, 0x69, 0xbb, 0x0a, 0xad, 0x7b, 0xfb, 0xed, 0x6c, 0x4e, 0x8b, 0x4b, 0x67, 0xf2, 0x81, 0xb8, 0xdf, 0x44, 0x02, 0x27, 0xdd, 0x79, 0xa1, 0x81, 0x28, 0x7a, 0x27, 0xae, 0x42, 0x00, 0x5c, 0x90, 0x73, 0x2d, 0xf4, 0xac, 0x58, 0xe1, 0xaf, 0x71, 0x3b, 0x71, 0x4d, 0x36, 0x69, 0x97, 0x28, 0x7f, 0xf6, 0xc7, 0x71, 0x2c, 0x6e, 0x7b, 0x6a, 0xf4, 0x74, 0xb8, 0xf2, 0x56, 0x9b, 0x4f, 0x10, 0xd4, 0x8d, 0x6a, 0x37, 0xf6, 0x7f, 0xb2, 0x23, 0x7b, 0xfc, 0x1a, 0x90, 0x11, 0xdd, 0x9f, 0x5c, 0x0e, 0xa1, 0x81, 0x84, 0xa3, 0xa6, 0x37, 0x8c, 0xa9, 0x8c, 0xcb, 0xab, 0xd3, 0xd7, 0x45, 0x7f, 0xb5, 0x99, 0xb4, 0x31, 0x7a, 0x53, 0x1d, 0x7b, 0x7b, 0xc3, 0xc6, 0x55, 0x06, 0x81, 0xa4, 0x70, 0xc8, 0x51, 0x79, 0xb7, 0x8f, 0x6f, 0xda, 0x43, 0x9b, 0x33, 0xee, 0x83, 0xe6, 0x74, 0xa2, 0x1e, 0x29, 0x7f, 0x6a, 0xea, 0x2c, 0xaf, 0xb1, 0xa4, 0x89, 0x61, 0x31, 0x82, 0x65, 0x03, 0x7f, 0xc3, 0x3d, 0x7d, 0x84, 0xee, 0xd9, 0xa8, 0x11, 0x56, 0xb5, 0x34, 0x93, 0x3f, 0xb7, 0x02, 0x63, 0xd8, 0x34, 0x68, 0x64, 0x7f, 0x2a, 0xe1, 0x41, 0x81, 0x69, 0x2a, 0xd8, 0xf2, 0x9c, 0x75, 0xdc, 0xc6, 0x22, 0xa5, 0xce, 0xdd, 0x16, 0x54, 0x5b, 0x9c, 0xc8, 0x5b, 0x49, 0x6c, 0x14, 0xb0, 0x50, 0x26, 0x66, 0xa7, 0x84, 0x81, 0xd2, 0x91, 0x56, 0xb2, 0xf8, 0x86, 0xef, 0x37, 0x22, 0x91, 0xf1, 0x7f, 0xbe, 0xc9, 0x90, 0x6b, 0x18, 0x3e, 0xde, 0x8d, 0x52, 0xa0, 0x1b, 0x39, 0x10, 0x55, 0x6c, 0x7f, 0x85, 0xba, 0x54, 0x13, 0x24, 0x0b, 0xd4, 0x14, 0x8a, 0xac, 0xcf, 0xf7, 0xc4, 0xeb, 0x70, 0x81, 0x41, 0x71, 0x39, 0x2c, 0x3e, 0xc7, 0xf1, 0xe6, 0x5d, 0x7a, 0x64, 0x6f, 0x68, 0x6d, 0x2c, 0x5b, 0x21, 0xf5, 0x7f, 0x2f, 0x06, 0xf9, 0x11, 0xa1, 0x7f, 0x4b, 0x23, 0x53, 0x70, 0x16, 0x14, 0xbb, 0x2f, 0xfa, 0x56, 0xc0, 0x3d, 0xec, 0xe8, 0x82, 0xa4, 0x9d, 0x3c, 0xba, 0x56, 0x94, 0x98, 0xed, 0xf7, 0x0c, 0x4f, 0x41, 0x81, 0x7c, 0x8c, 0x43, 0x2c, 0xb4, 0x30, 0xc7, 0xff, 0x81, 0xcb, 0xfb, 0xa4, 0x2f, 0x2e, 0x9b, 0x1d, 0x81, 0x60, 0xfc, 0x4a, 0xd9, 0x88, 0x99, 0x81, 0x92, 0xeb, 0x73, 0x40, 0xb7, 0xfe, 0x51, 0xa7, 0x73, 0x6c, 0x93, 0x81, 0x70, 0x0f, 0x02, 0xd0, 0x7e, 0x57, 0xcb, 0xe0, 0xf4, 0x0d, 0x7c, 0x0b, 0xee, 0x5b, 0x25, 0xa0, 0x97, 0x7f, 0x48, 0x31, 0x73, 0x32, 0x88, 0x28, 0x89, 0x87, 0x3f, 0x30, 0x5d, 0xf4, 0x6c, 0x75, 0xa2, 0x1f, 0xe8, 0xe8, 0xaa, 0x9f, 0xa8, 0x55, 0x31, 0x24, 0x4c, 0x11, 0x81, 0xb1, 0xfd, 0x18, 0x2f, 0x77, 0xe3, 0x29, 0x1a, 0x19, 0x32, 0x86, 0x00, 0x7f, 0x4e, 0x0b, 0xc9, 0x77, 0x47, 0x77, 0xd2, 0x2a, 0xf0, 0xc9, 0xfd, 0x81, 0x1d, 0x4a, 0x56, 0x2d, 0x85, 0xf0, 0x61, 0xa6, 0xa0, 0x6a, 0x81, 0xac, 0x93, 0x5d, 0x3a, 0x63, 0x05, 0xd6, 0xfc, 0x5a, 0x95, 0xe9, 0x29, 0x9f, 0xf4, 0xce, 0x43, 0xa2, 0x86, 0x41, 0x74, 0x09, 0xc9, 0x48, 0x46, 0x7f, 0xe1, 0x96, 0xee, 0xc3, 0x02, 0xdf, 0xb0, 0xf7, 0x44, 0xd6, 0x77, 0x63, 0x7f, 0x81, 0xdd, 0xe0, 0x41, 0x96, 0xb3, 0x63, 0x45, 0x51, 0x43, 0x1e, 0x33, 0x50, 0x88, 0x81, 0x22, 0xcc, 0xdb, 0x3c, 0xeb, 0xb7, 0x5d, 0x75, 0x70, 0x65, 0x85, 0x6b, 0x79, 0x93, 0x5e, 0x56, 0x63, 0x81, 0x17, 0x82, 0x2e, 0x4e, 0x07, 0x9f, 0x81, 0xcd, 0x87, 0xae, 0x23, 0x18, 0x9a, 0x4d, 0x2d, 0xa5, 0x2c, 0x7a, 0x60, 0x35, 0xd2, 0xc5, 0xde, 0xe9, 0xb7, 0x2e, 0x3d, 0x72, 0x90, 0x19, 0x86, 0xc6, 0xf9, 0x36, 0xfb, 0x7f, 0x8b, 0xcb, 0x74, 0x81, 0x35, 0x20, 0x88, 0xbb, 0xbb, 0xdd, 0xa8, 0x52, 0x68, 0x0f, 0xc5, 0x97, 0x34, 0x03, 0x4b, 0x33, 0x24, 0xf6, 0x91, 0x7f, 0x6b, 0x09, 0x36, 0x8d, 0x7a, 0x60, 0x99, 0xb6, 0x60, 0xf1, 0xac, 0xe2, 0xf7, 0x22, 0xc4, 0xb4, 0x6b, 0x50, 0x81, 0x3f, 0x96, 0xbc, 0x03, 0xc0, 0x55, 0xe6, 0x2b, 0xf8, 0xe8, 0xd9, 0xe5, 0x63, 0xf2, 0x05, 0x11, 0x61, 0x81, 0xca, 0x90, 0xa5, 0x54, 0xaf, 0xb3, 0x90, 0x89, 0x9b, 0xad, 0x6d, 0xb1, 0xd2, 0x81, 0x04, 0x68, 0xcc, 0xcd, 0x33, 0x8b, 0x2a, 0xb9, 0x81, 0x1b, 0xab, 0x05, 0x08, 0x97, 0x24, 0x3e, 0xec, 0xb2, 0x8e, 0x40, 0x8c, 0x3e, 0x84, 0xe2, 0xb5, 0x26, 0xc6, 0xa1, 0x81, 0xa6, 0xa7, 0xec, 0xb3, 0x11, 0x0c, 0xc0, 0x2a, 0xc9, 0xd3, 0x1c, 0x05, 0x87, 0x28, 0x59, 0xcc, 0x1c, 0xde, 0x64, 0xc2, 0x16, 0x46, 0xad, 0x81, 0xec, 0xd4, 0x21, 0x08, 0x7f, 0x38, 0xe7, 0x57, 0xba, 0xbe, 0x4f, 0xad, 0x4a, 0xe0, 0xe0, 0x00, 0x1e, 0xad, 0x90, 0x70, 0x86, 0xb0, 0x9f, 0x49, 0x91, 0x1c, 0xbe, 0x45, 0x81, 0x89, 0x4a, 0x21, 0x1d, 0xf9, 0x15, 0x29, 0xa3, 0x35, 0xfb, 0xed, 0xab, 0x43, 0x38, 0x17, 0xde, 0xc0, 0x7f, 0xde, 0x0c, 0x81, 0xb4, 0x4f, 0xec, 0xa8, 0xfc, 0xb0, 0x1d, 0x97, 0x19, 0x14, 0x17, 0x53, 0x91, 0x1c, 0x4f, 0x1a, 0xf8, 0x9b, 0x2b, 0xe2, 0x63, 0x2b, 0x28, 0xa7, 0x62, 0x88, 0x28, 0xbc, 0x02, 0x7f, 0xc0, 0x74, 0xf8, 0x8a, 0xa2, 0xaf, 0xac, 0x48, 0x4e, 0x15, 0x58, 0x76, 0x7f, 0x8a, 0x20, 0x4c, 0xbe, 0x28, 0x7e, 0x5a, 0xb1, 0x7e, 0x81, 0x21, 0x75, 0xfc, 0x59, 0x38, 0x9a, 0x24, 0x71, 0x2b, 0x05, 0xef, 0x3d, 0xc8, 0xb6, 0xc3, 0x7b, 0xab, 0x2a, 0x70, 0xa0, 0x15, 0x7f, 0x57, 0x1a, 0xb4, 0x50, 0x49, 0x36, 0x3a, 0x27, 0x72, 0x60, 0x5e, 0xa9, 0x81, 0x9d, 0x79, 0xf2, 0x70, 0x28, 0xc7, 0x8d, 0x4a, 0x56, 0x71, 0xbd, 0x10, 0x64, 0x44, 0x63, 0x74, 0x23, 0x81, 0x13, 0xe1, 0x6c, 0xb2, 0x47, 0x7f, 0x9f, 0xb9, 0x89, 0x3b, 0x49, 0x71, 0xb1, 0x6b, 0x30, 0x00, 0x19, 0x3c, 0xee, 0x7e, 0x4f, 0x05, 0xeb, 0xda, 0xbd, 0x8a, 0xb6, 0x27, 0x4d, 0x12, 0xb8, 0xe6, 0x81, 0x0f, 0x94, 0xd2, 0xc2, 0x30, 0xb8, 0xc1, 0xed, 0x7a, 0x0a, 0x34, 0x98, 0x81, 0xe2, 0x0e, 0xbb, 0x20, 0xf2, 0x43, 0x32, 0x7d, 0x7a, 0x81, 0x51, 0x65, 0x11, 0x4a, 0xe5, 0x5d, 0xa2, 0xbe, 0x0d, 0x78, 0x7d, 0xb1, 0xf3, 0x84, 0x06, 0xc0, 0xb4, 0x0f, 0x7b, 0x81, 0xc2, 0xe7, 0x9a, 0x1c, 0xd7, 0x32, 0x4c, 0x5c, 0x2b, 0x01, 0x1f, 0x79, 0x60, 0x31, 0xf7, 0x89, 0x57, 0x1a, 0xf9, 0x85, 0x25, 0x9a, 0x81, 0x87, 0x70, 0x4c, 0x47, 0xca, 0x68, 0xb0, 0x02, 0xa2, 0x6f, 0x7f, 0x8a, 0x6c, 0xbb, 0xaa, 0xfe, 0x53, 0xc2, 0x03, 0xc6, 0xc0, 0x30, 0xf2, 0xe9, 0x3e, 0x7c, 0x81, 0x56, 0xe7, 0xf9, 0xa2, 0x4d, 0x35, 0x5b, 0x06, 0x82, 0x5e, 0x0e, 0x4c, 0x0a, 0x43, 0xb7, 0x03, 0x7f, 0x08, 0x03, 0xe8, 0xcc, 0x89, 0x40, 0x83, 0x74, 0x5f, 0x48, 0x32, 0x04, 0x35, 0xc9, 0x9d, 0x70, 0x4d, 0x14, 0x11, 0x7f, 0xfd, 0x23, 0x8c, 0x6d, 0xe3, 0x95, 0x1a, 0x91, 0x2d, 0xf9, 0x75, 0x78, 0x9c, 0x94, 0xf2, 0x50, 0x81, 0x05, 0xd9, 0xe0, 0x6e, 0xc2, 0x81, 0xc5, 0xd6, 0xa7, 0xe6, 0x4f, 0xb0, 0x0b, 0xf7, 0x45, 0xb9, 0x33, 0x81, 0x01, 0x3e, 0xed, 0xe6, 0xec, 0x3b, 0xda, 0xd8, 0x8b, 0x8a, 0x78, 0xfe, 0xc6, 0xaf, 0xb6, 0xc5, 0xf8, 0xd3, 0x6d, 0x83, 0x4f, 0xe5, 0x81, 0x05, 0xa7, 0x36, 0xbe, 0x9e, 0xcf, 0xbd, 0x45, 0x1c, 0xf9, 0x7f, 0x0e, 0x62, 0x4a, 0x1b, 0x70, 0xc8, 0x26, 0x03, 0x32, 0x2b, 0x6f, 0xf8, 0xb9, 0xe2, 0x3b, 0xc6, 0x03, 0x35, 0x9e, 0xa1, 0x88, 0xb6, 0xa9, 0x42, 0x61, 0x21, 0x4e, 0x81, 0x43, 0x5c, 0x8c, 0xd6, 0x81, 0xe5, 0x16, 0xe1, 0xaf, 0x2c, 0xd6, 0x58, 0x54, 0x82, 0x8e, 0xc6, 0x37, 0xa8, 0x75, 0x95, 0x7e, 0x1f, 0x68, 0xe3, 0xb5, 0x3e, 0x46, 0xef, 0x05, 0x47, 0x8e, 0xd6, 0x7f, 0x08, 0xff, 0x24, 0x63, 0x08, 0x7f, 0x5e, 0x52, 0x0e, 0x74, 0xee, 0xe1, 0xbf, 0xaf, 0x43, 0x7f, 0x61, 0x09, 0x37, 0x9f, 0x9a, 0x5d, 0x51, 0xb6, 0x4d, 0x26, 0x3b, 0x2c, 0xf2, 0x81, 0xac, 0xce, 0x2d, 0x24, 0xd0, 0x39, 0x04, 0xbd, 0x7f, 0x8b, 0xc8, 0x1f, 0x28, 0xb5, 0x96, 0x21, 0x46, 0xa2, 0xd1, 0xdc, 0x02, 0x7f, 0xf4, 0xd4, 0xca, 0x9f, 0xcc, 0x06, 0x20, 0x1c, 0x5d, 0x0c, 0xe1, 0x17, 0xe5, 0x36, 0x65, 0x29, 0xfc, 0xd8, 0x85, 0x3d, 0xea, 0x81, 0xd4, 0xcd, 0xb5, 0x08, 0x6a, 0xba, 0x29, 0x33, 0xe1, 0xbf, 0xb2, 0x66, 0xf6, 0x02, 0x6c, 0x7f, 0x11, 0x11, 0x13, 0xb3, 0x59, 0x20, 0x7f, 0x94, 0x6c, 0x84, 0x96, 0xb5, 0x0d, 0x97, 0xc2, 0x71, 0xed, 0x0b, 0xc9, 0x28, 0x28, 0x33, 0x77, 0x01, 0xbc, 0x22, 0x81, 0x05, 0xfe, 0xfa, 0x21, 0x28, 0xa3, 0x9f, 0x66, 0x66, 0x1c, 0x4e, 0xb8, 0x4c, 0x2f, 0x44, 0xa7, 0x01, 0x57, 0x81, 0x2b, 0xfb, 0x36, 0xfe, 0x8c, 0xeb, 0x51, 0xe3, 0x4a, 0x74, 0xec, 0xff, 0xf7, 0xf2, 0xf0, 0xb7, 0x81, 0x1b, 0xa6, 0xbd, 0x33, 0x31, 0xb7, 0x18, 0x1f, 0x64, 0xdf, 0x56, 0xbb, 0x53, 0x12, 0x7f, 0x65, 0x0b, 0xc1, 0xc6, 0xb6, 0x21, 0x50, 0x98, 0xd0, 0x78, 0x0d, 0x36, 0x81, 0x61, 0x3a, 0xf5, 0x3f, 0xad, 0xaa, 0x86, 0xa9, 0xc5, 0x84, 0x82, 0x25, 0x77, 0x1a, 0x7f, 0x99, 0x2d, 0x43, 0xaf, 0x71, 0x68, 0x82, 0xee, 0xc3, 0x2a, 0xc2, 0x4b, 0xb2, 0x9a, 0xe2, 0x99, 0xfc, 0xb2, 0xe9, 0x16, 0xa3, 0xe4, 0xb2, 0x7f, 0x1b, 0xb2, 0x51, 0x37, 0x5d, 0x81, 0x6c, 0x9d, 0x66, 0x96, 0x01, 0x6d, 0x13, 0xce, 0x63, 0x36, 0x2d, 0xc6, 0x92, 0x2d, 0xe7, 0x5e, 0xac, 0xbd, 0xe5, 0xdb, 0xb9, 0x18, 0x19, 0xb8, 0x1d, 0xd2, 0x7f, 0xae, 0x93, 0x87, };
const int32_t bias15[96] = {6686, 19886, -17404, -15594, -1070, 17056, -23688, 40255, 33644, -297, -25931, -1001, -16384, -33595, -1086, 7958, 33937, -5594, 35881, -8808, -4585, 13563, -30619, -348, -29981, 19954, -24382, -8755, 3142, 16534, 33842, -17597, 3097, 18677, 21354, 8995, 24144, -13802, -26008, 3971, 30636, -25791, 2313, -23209, -14417, -6824, -16443, -19304, 11515, -7640, 10543, 9901, -7798, 17992, 33278, -17504, -22990, 13351, 12078, -11966, -27581, -26774, 14349, -3716, 33687, 16141, -10936, 20842, 6280, 8700, -8824, -3586, 10790, 22894, 8885, 16776, -5516, 27470, 8181, 1385, 15878, -9456, 20193, 26603, -29953, 6380, -24992, -3234, -2141, -6240, 4466, -27909, 13614, 890, 7719, 556, };
const float scales15[96] = {0.0016681278959097096, 0.0017799522794217358, 0.0017748622219662326, 0.0016261494669351907, 0.0017087634147256333, 0.0017423787474474596, 0.0017817553218468542, 0.0014947285626538285, 0.0017604966044132853, 0.0016697169611211752, 0.0017900053081192668, 0.0018092982521024483, 0.001804237663913838, 0.0018167645942298734, 0.00177699874381597, 0.00179377910776785, 0.0014690389459256997, 0.0018028801274646892, 0.0016694249770245707, 0.001787474959853515, 0.0017045598188205637, 0.0017371923731600892, 0.0016474442625521249, 0.0017082929898842763, 0.0018231153295881935, 0.0017975854102843301, 0.001764650795959152, 0.001794406088089576, 0.0018290113498246401, 0.001610250364074881, 0.0017568177131389601, 0.0013340342754300564, 0.0018052636711104412, 0.0017741869207142337, 0.001446182712535012, 0.0017990383968222018, 0.0016023436080874567, 0.0016987191618024345, 0.00166729885609256, 0.0017789295225119222, 0.0017742273326133186, 0.0018236910637215358, 0.001821074582855858, 0.0016244730773519761, 0.0015897153771664767, 0.0017679293602438839, 0.0017171968255158758, 0.0017254676136237422, 0.0013727046708529506, 0.0017942355563760116, 0.0016368980570057093, 0.0017878167816808945, 0.0017576884649699105, 0.001563167359697198, 0.0016866622229561841, 0.0017201692127850215, 0.0018288067984426773, 0.0018308718139830424, 0.0017683853754804735, 0.0016647535565075759, 0.001724353523655139, 0.0015923696697018076, 0.0016630419554841398, 0.0017806289891313435, 0.001463604033041813, 0.0017454716120136088, 0.0016323005263417325, 0.0015557167272892566, 0.0017089901764006587, 0.0017558918147754785, 0.001689006871503353, 0.0018123853744952691, 0.0018240570460140515, 0.0017892391071800506, 0.0016991965205889429, 0.0017879600109854256, 0.001709025062812201, 0.0015575036266233194, 0.0014606575397240918, 0.001734013267651121, 0.0017326738244651013, 0.0018303935884533902, 0.0017600161036828803, 0.0017966677459807156, 0.0017813569450293347, 0.0017542655879517176, 0.0016093922883624104, 0.0012423784631623465, 0.001830769104920489, 0.0017676565528393384, 0.0016287157850414147, 0.0018048192485634015, 0.0018304169905182758, 0.0016762142844137093, 0.0018079018205547166, 0.0018061572832918122, };
const int32_t shift15[96] = {-9, -9, -9, -9, -9, -9, -9, -9, -9, -9, -9, -9, -9, -9, -9, -9, -9, -9, -9, -9, -9, -9, -9, -9, -9, -9, -9, -9, -9, -9, -9, -9, -9, -9, -9, -9, -9, -9, -9, -9, -9, -9, -9, -9, -9, -9, -9, -9, -9, -9, -9, -9, -9, -9, -9, -9, -9, -9, -9, -9, -9, -9, -9, -9, -9, -9, -9, -9, -9, -9, -9, -9, -9, -9, -9, -9, -9, -9, -9, -9, -9, -9, -9, -9, -9, -9, -9, -9, -9, -9, -9, -9, -9, -9, -9, -9, };
const int32_t multiplier15[96] = {1834126018, 1957078228, 1951481651, 1787970247, 1878805244, 1915765693, 1959060694, 1643471435, 1935686487, 1835873214, 1968131650, 1989344466, 1983780291, 1997553796, 1953830781, 1972280987, 1615225403, 1982287664, 1835552174, 1965349503, 1874183341, 1910063214, 1811384123, 1878288006, 2004536504, 1976466061, 1940254069, 1972970359, 2011019246, 1770488999, 1931641503, 1466786198, 1984908398, 1950739149, 1590094708, 1978063636, 1761795429, 1867761471, 1833214479, 1955953695, 1950783583, 2005169530, 2002292679, 1786127038, 1747910542, 1943858889, 1888077877, 1897171705, 1509304747, 1972782857, 1799788447, 1965725340, 1932598905, 1718720688, 1854504726, 1891346051, 2010794340, 2013064848, 1944360283, 1830415893, 1895946750, 1750828968, 1828533968, 1957822278, 1609249653, 1919166333, 1794733409, 1710528631, 1879054571, 1930623467, 1857082695, 1992738793, 2005571932, 1967289203, 1868286332, 1965882822, 1879092929, 1712493348, 1606009949, 1906567751, 1905095017, 2012539034, 1935158171, 1975457078, 1958622674, 1928835412, 1769545535, 1366009566, 2012951919, 1943558934, 1790791944, 1984419750, 2012564765, 1843017096, 1987809074, 1985890935, };
const unsigned char CHWweight16[864] = {0xd3, 0x93, 0x9c, 0x7f, 0xfe, 0x12, 0x09, 0xec, 0x5e, 0x6b, 0x23, 0xe8, 0xb7, 0x9a, 0x85, 0x07, 0xaf, 0x7f, 0x81, 0x51, 0x64, 0x96, 0xdb, 0x57, 0x49, 0x14, 0xd5, 0x5a, 0xfe, 0x63, 0x49, 0x4b, 0x84, 0xa1, 0x4e, 0x7f, 0xf4, 0x87, 0xf1, 0x7f, 0xfa, 0xb3, 0xa9, 0xdb, 0x2c, 0x46, 0x45, 0x5d, 0x50, 0x6f, 0x6e, 0x81, 0xf0, 0x32, 0x7f, 0xd0, 0x84, 0xf0, 0x87, 0x1d, 0xcb, 0x64, 0xb4, 0x4c, 0x7f, 0x78, 0x25, 0x16, 0xc3, 0xfc, 0x52, 0xc6, 0xf1, 0x34, 0x53, 0xab, 0x4e, 0x1d, 0x7f, 0x61, 0x91, 0x81, 0x7c, 0x7e, 0x48, 0xb4, 0x88, 0xe7, 0xcf, 0x0e, 0xfe, 0x4c, 0x7f, 0xd5, 0xc6, 0x47, 0x3e, 0xef, 0x33, 0x25, 0x81, 0x96, 0x74, 0x05, 0x17, 0x5b, 0xbe, 0xa1, 0x81, 0xe2, 0x57, 0x10, 0x58, 0xef, 0x95, 0x05, 0x86, 0x74, 0xaf, 0x7f, 0x98, 0xf1, 0x46, 0x0a, 0xb4, 0xa3, 0x7f, 0x17, 0x5b, 0x5e, 0x9d, 0xc4, 0x14, 0xe7, 0xf4, 0x1e, 0xb2, 0xc1, 0x9d, 0xd0, 0x73, 0xe0, 0x7f, 0x77, 0xca, 0xfc, 0x8a, 0xe7, 0x7f, 0x2f, 0x2b, 0x82, 0x34, 0x3f, 0x85, 0xdd, 0x18, 0x67, 0xa6, 0x3e, 0x83, 0x7f, 0x8f, 0x3f, 0x7f, 0x78, 0x57, 0xfa, 0x51, 0x0a, 0x2c, 0x3c, 0x08, 0x81, 0x67, 0x7a, 0xec, 0xdc, 0x42, 0x3f, 0x2a, 0x7f, 0x92, 0x30, 0x2f, 0x60, 0x92, 0x5f, 0xaa, 0x24, 0x2d, 0xe3, 0x65, 0xbd, 0xd7, 0x81, 0xa2, 0x89, 0xf5, 0x81, 0x3c, 0x9f, 0xce, 0xb0, 0xb2, 0x74, 0xbc, 0x6a, 0xaa, 0x8d, 0x2a, 0x81, 0xb2, 0x0e, 0xa0, 0x85, 0x3d, 0x74, 0x7f, 0xb0, 0xe0, 0x1f, 0xaf, 0xa4, 0x6b, 0xb9, 0xdf, 0xa2, 0xca, 0x2c, 0x98, 0x20, 0x50, 0x7f, 0x71, 0x9b, 0x5f, 0xeb, 0x78, 0xde, 0x81, 0xac, 0x3c, 0x36, 0x81, 0xd4, 0x52, 0x8b, 0x1a, 0x1c, 0x8c, 0xb8, 0x9f, 0xdd, 0x96, 0x33, 0xf4, 0x1b, 0x7f, 0x95, 0x6a, 0x2e, 0xa0, 0x30, 0xdc, 0x2e, 0x83, 0x46, 0x4c, 0x7f, 0xd1, 0x94, 0x81, 0xb8, 0xb8, 0x14, 0xac, 0xe5, 0x99, 0x39, 0xfc, 0x6f, 0x84, 0xa8, 0x33, 0x7f, 0x81, 0x45, 0xe4, 0x45, 0x9a, 0x82, 0x64, 0x7f, 0x05, 0x44, 0xf2, 0x26, 0x75, 0xab, 0x81, 0x19, 0x3b, 0x70, 0xf5, 0x6a, 0x5f, 0x81, 0xa9, 0x46, 0x9b, 0x64, 0x1c, 0xe4, 0xac, 0xaf, 0x44, 0x90, 0xc4, 0x81, 0x01, 0x50, 0xf9, 0xfc, 0x56, 0x87, 0x97, 0x50, 0x7f, 0xab, 0x26, 0xef, 0xf5, 0x9b, 0xcd, 0xc7, 0x86, 0x63, 0x1d, 0xad, 0x7f, 0x9b, 0x1d, 0x6e, 0xc9, 0xf5, 0x1a, 0x64, 0xa7, 0x99, 0x81, 0x20, 0xcd, 0x7f, 0xa0, 0xde, 0x83, 0x4f, 0xd7, 0xed, 0x1c, 0xc9, 0x30, 0x7f, 0xc5, 0x64, 0x4f, 0x57, 0x07, 0x3d, 0x90, 0xc4, 0x12, 0x54, 0x7f, 0x50, 0x6f, 0xe8, 0xbe, 0x1f, 0xfa, 0x3e, 0x0a, 0x99, 0x7f, 0xcb, 0x40, 0x6b, 0x65, 0x21, 0x85, 0x3c, 0x81, 0x5d, 0xab, 0x0f, 0xfb, 0x81, 0xbc, 0x90, 0x8d, 0xe9, 0x66, 0x92, 0xaa, 0x81, 0x1b, 0x5d, 0xcf, 0xeb, 0x3c, 0x8c, 0x34, 0xa9, 0x7f, 0xd1, 0xc1, 0x1e, 0x6d, 0x99, 0xa5, 0x32, 0xef, 0xa2, 0xa9, 0x38, 0xc5, 0x7f, 0x7b, 0x03, 0x5b, 0x5f, 0xb4, 0x8a, 0x1e, 0x88, 0x81, 0x0c, 0xfd, 0x37, 0xf6, 0x20, 0x06, 0x7f, 0xf1, 0x52, 0xc6, 0xee, 0x13, 0x13, 0x71, 0xd8, 0xac, 0x81, 0x3e, 0x85, 0x7a, 0xa1, 0x07, 0x81, 0x4a, 0x89, 0x5b, 0xa4, 0x4f, 0x43, 0x9f, 0xb0, 0x4b, 0xde, 0x8b, 0x9f, 0xd8, 0x81, 0x10, 0x7f, 0x23, 0x71, 0x8e, 0xf9, 0x40, 0x7f, 0x45, 0x97, 0x23, 0x9a, 0xb9, 0x16, 0x81, 0xd0, 0xd9, 0xfa, 0xb6, 0xb4, 0x1b, 0xd0, 0xc8, 0x3a, 0xac, 0x7a, 0x84, 0x81, 0xf9, 0x5f, 0xd4, 0xbe, 0xea, 0xf8, 0x8d, 0x81, 0xdf, 0xbe, 0xb1, 0xfc, 0x7c, 0x0f, 0x7f, 0x44, 0x65, 0x32, 0x9d, 0x23, 0x7b, 0x17, 0x1b, 0xca, 0x8c, 0x81, 0xaa, 0x41, 0x5d, 0x3e, 0x2c, 0x01, 0x58, 0x81, 0xb2, 0x46, 0x3c, 0xf9, 0x17, 0x7d, 0x70, 0x5c, 0x6e, 0x57, 0xc7, 0x81, 0x11, 0x9d, 0xf8, 0x30, 0xce, 0x6c, 0x08, 0x7f, 0x45, 0x65, 0x81, 0xea, 0x99, 0x9e, 0x72, 0x7f, 0xf2, 0x71, 0xa7, 0x72, 0xb4, 0xe7, 0xd6, 0x7f, 0xf1, 0xaa, 0xd5, 0xf5, 0x96, 0x40, 0x25, 0x8a, 0x1c, 0xe5, 0x0b, 0x81, 0x01, 0xd0, 0x02, 0x2b, 0x0f, 0x71, 0x45, 0x81, 0x99, 0x75, 0x8f, 0x67, 0x81, 0xd7, 0x15, 0x59, 0x39, 0x2f, 0xbd, 0x3b, 0x3d, 0xb3, 0x69, 0xe2, 0x81, 0x6e, 0x29, 0xbf, 0xca, 0x45, 0xaf, 0xb4, 0x6d, 0x21, 0x15, 0x7f, 0xd0, 0xad, 0x81, 0x7b, 0x4b, 0x06, 0x7f, 0xc1, 0xae, 0x26, 0x11, 0x51, 0x76, 0xa1, 0x29, 0x7f, 0x1f, 0x07, 0xd1, 0x61, 0x22, 0x7f, 0xdd, 0xa6, 0x21, 0x92, 0x0e, 0x3d, 0x65, 0xc3, 0xf0, 0x7f, 0xbf, 0x6d, 0x85, 0x0a, 0x3a, 0x7f, 0x95, 0x8a, 0x9c, 0x5a, 0xc4, 0x8f, 0x78, 0x6f, 0x4b, 0xc5, 0x7f, 0x33, 0xfa, 0x8c, 0x51, 0x02, 0x79, 0x34, 0xc7, 0x7f, 0x51, 0x7a, 0x97, 0x5a, 0xc9, 0xcf, 0x56, 0xb0, 0xe8, 0x3f, 0x25, 0xeb, 0x48, 0x81, 0xb3, 0x6c, 0xba, 0x81, 0x5b, 0x86, 0xd6, 0xbc, 0x3e, 0x72, 0x6f, 0x5c, 0x09, 0xe0, 0x85, 0x6e, 0x81, 0xd8, 0xf0, 0x53, 0x27, 0x1f, 0x7f, 0x37, 0xeb, 0x58, 0x40, 0xad, 0x5d, 0x1f, 0x98, 0x12, 0xe8, 0x75, 0x81, 0x60, 0xda, 0xae, 0x9d, 0x17, 0x4b, 0xdf, 0x3a, 0x25, 0x81, 0x40, 0x12, 0x33, 0xba, 0x04, 0x7f, 0x9e, 0x42, 0x6f, 0x03, 0xd0, 0x79, 0x9e, 0x81, 0x3e, 0xcf, 0x3c, 0xfc, 0x79, 0xd5, 0x7f, 0x5d, 0x82, 0xe5, 0x8e, 0x9e, 0x5b, 0x3d, 0x89, 0xd6, 0xf5, 0x39, 0x44, 0x26, 0x7f, 0x01, 0x84, 0xde, 0xef, 0x4a, 0x0b, 0x03, 0x7f, 0xaa, 0xd5, 0x73, 0xba, 0x66, 0x9f, 0x81, 0x55, 0xfe, 0x17, 0x78, 0x56, 0xb1, 0x8d, 0xee, 0xa9, 0xe0, 0x15, 0x7f, 0xb6, 0x02, 0xfe, 0xa7, 0xf9, 0xd0, 0x7f, 0x2b, 0xf9, 0xb1, 0x1a, 0xcc, 0xa6, 0x7f, 0x1e, 0xfb, 0xcc, 0xd8, 0xce, 0xd7, 0x01, 0xe9, 0xef, 0x76, 0x81, 0x64, 0x31, 0xdf, 0x5d, 0x0d, 0x3b, 0x0d, 0x44, 0x7f, 0x76, 0x99, 0x02, 0xf0, 0xc8, 0xff, 0x22, 0xde, 0x1f, 0x81, 0xed, 0x06, 0x5c, 0xe2, 0xd9, 0x7f, 0xa9, 0x7c, 0x24, 0x4d, 0x31, 0x75, 0x90, 0xac, 0x6c, 0x89, 0xc9, 0xc9, 0x9f, 0x04, 0x7f, };
